node {
  name: "Cast/x"
  op: "Const"
  device: "/replica:0/task:0/device:CPU:0"
  attr {
    key: "_output_shapes"
    value {
      list {
        shape {
          dim {
            size: 1024
          }
          dim {
            size: 10
          }
        }
      }
    }
  }
  attr {
    key: "dtype"
    value {
      type: DT_DOUBLE
    }
  }
  attr {
    key: "value"
    value {
      tensor {
        dtype: DT_DOUBLE
        tensor_shape {
          dim {
            size: 1024
          }
          dim {
            size: 10
          }
        }
        tensor_content: "\026\277\037\363\026\010\343?\300\361\"\270p\364\314?uS\261\332)-\347?W\312\025\212\266\316\354?\014\231\372\350\\\276\313?hOL\367\201\334\271?\270\206\350\257\026\004\346?.A`-\266\255\330?\316\217\257\206\360\336\337?\022\034\021:}v\336?\\\233\223D-|\347?\017\036#B2\321\353?\000x\034\350\207\201\326?\357sD\221C$\357?~\206(7\032\364\350?\312]M\205\'D\357?VH2n\3453\337?\314\2216d\'\235\351?6o\306A\345\344\350?\361\211\006\201\216\265\354?\010L\310\326LT\265?S\216\343P\265\304\341?\224\0049\214\207\372\333?\251T*\334\310\346\340?\226B]DL,\325? _\356\037\024\306\317? \"\320\226\230\201\227?\227\361\3021\334c\352?\020\230\205~N\016\343?\344z\"\320|\303\320?:Y\001\367\311\261\324?\014\'7\251\310\327\307?\300\030G:8g\242?F\315\311\277\222$\330?\\+\336\036\364L\334?H&\217\364\262\316\271?\016\276(l\327K\323?\234\032\014W7\312\326?\224Fg\314\213\013\351?\200\235\306<\201\360\216?\222\003N\357\315\216\322?\243\320\r\306\034c\351?\362\200\n\2568\177\337?\240\224\217\375\201-\343?\276\260X\210\341\005\353?\335\230\256K\022t\356?CF}\352\360\371\350?\3143\216oTj\356?\306\360\002I\rU\353?\336n\002\301\375\335\342?E~N|\334R\342?3\004\266{\230=\343?\240\006\305\243\310\201\246?\252\363\355\250\035\231\354?1\354\007\300\353\243\340?\372\025Tl]\024\323?\321\303D\237Z\250\343?\244\355\316:\177N\350?\2477\301\304\r\346\351?\305Z\000\251\342h\344?>\235.*\360I\353?\232 w\004f\250\340?.\333\344\372L\244\344?W\310[I<x\352??\3745\340\342\365\341?C\031\244\354\'\203\350?Z\311\004(\006\310\331?\017a6\311\237\256\353?\004\262@n\371\327\313?,\024\310*q\360\337?+M\002kE\332\357?$;\236l\307\r\316?\250\264y\267\304\212\340?\310\332$\271(\314\305?\030;H \337\034\336?b\244\333\224H\202\332?\240\266\201\035\n\342\356?\374\031>.\301\013\321?*M\336\332\360_\357?\007\316&\303r\372\355?\305t?\265\235\213\342?X\273\322S\004\276\353?\262O\320\0076\305\330?\330\306!RRw\332?\370P\"\2040\302\322?P\324\323\017\317\266\272?\232k)\212H\363\336?\214\265\177\342?\036\304?@\336\302S\034\232\326?0\356\345N\000!\240?\026\010*\251\221\273\347?Z/\337p\257\222\325?\030)\256\230\3466\317?u\245\203\257^u\350?\322\n\n\301Vu\357?\235v{\242\205F\344?X\301\023\036\366B\266?\225\032\335\312\357^\355?!\021\032\223nF\354?\266\006_\0002\255\324?\300\031\351\3022\335\344?8\354\315\377\217\203\335?0\223og\263\364\277?HBs\316#\317\302?m\376`\016~l\357?\264\032\210w\315\356\350?\010\253\002\250-Z\356?.\257X|\356\003\340?\212V\302\323*L\320?h)\265\026\356e\352?r,XA\342\026\353?\001\357\177~\033\243\347?\376DGf\247:\352?t\330\027\377d\200\341?\224\246\n\007\256\361\341?\327\267\203<\261$\343?\360H\274\2029\331\261?\213\003d\202\251U\351?\030K\343(\377M\354?\000\240\031\260\333\324\025?PQ\223x\344\350\302?B\344g\256F\316\336?\246\207\375\275\023\302\337?\300pqhE\374\225?\272c\227\265\257\356\347?L~\034?\270\262\325?\342\347\373M\001\333\331?l\363\345\256\036\253\325?(z\324\225\375\357\314?\225?\214hw\"\355?\211\310\357\262W\250\353?\371\206\352HG\026\343?\372w\200aN\270\334?\250bO\267\330\346\344?i\337\005\r\227\320\353?\371\210\240\236\255\010\353?H\025+\307\207\237\307?\'\210TiD*\350?\374Y\022R\251\356\344?\234\026\"\366\377\346\330?y\304\022\314\014\276\357?G\341|\333]?\344?\244\271\334\311\353(\336?\'.0\366S/\357?I\223>\345{\376\341?2\020\203\367>X\334?\240\367\271\'\227\301\330?\245u/`\241(\344?\326\351\241\352P\316\336?.!\337\301%\305\344?\200\254\016\000h,\236?(\261A\306-\361\325?2B\314\330\nP\335?\374[\373e\317\267\332?V\n\275\332&\230\353?r*\372\352\026\000\323?\336<\307Nk\203\327?\260\202\276>\010\274\324?\360\371\260\3111\234\310?\260h\223\021\367\345\332?0\317?fa)\335?\204\354\367\276\'\361\351?\236g\312jX\033\334?F\020\273\007\307(\347?a\211\0075\0160\345?x~\251\007\340.\333?\030g\204\266ym\312?3\261\002\234\202h\355?j\341\372\"E\371\322?\342\317\216J4s\337?\240\351J2\242\274\321?\037{?\335A)\344?\233S/5y\227\341?\370\326$&t\271\277?\277\236)\320b\000\341?z\3531\300?\226\336?\201\2263\304\215\032\350?\314\306G[q\375\346?\375?\267Fq\236\346? 4\336\362Gn\324?d\205\0042\271\366\347?\371\274\007\236*\211\354?C\243\263o^\350\353?\2365\036\301\270\306\320?%$\375\t\301q\351?I#\221\'\313\021\346?/\r}`>{\355?\364\250Z\233\374\324\352?\220\231\303\265\332\023\262?\300\035\344E\250Y\305?\355\324\246\351I\211\342?\035%\006$1@\341?e\311\357p&\006\344?\033\031\274oE\336\351?\3260\272\226\364\032\321?\000\336Ip\373\030\320?\340z6\257A\263\246?\337\010\345\350\241w\341?:\210?\246\261\232\347?\273\317\034\204\234F\345?J\221\347d\367\033\335?@\002D\257\225V\230?\336o\257(\205\033\337?\356\033\324\241\370+\350?\204M\324\016{\340\343?\350\337\013\332V\351\337?W\305\366\206\326\200\346?<\356\001\004DY\342?\333\273\005T\305B\347?\247TJ\212l\212\356?4\023F\223x\301\315?MJy\300\300!\354?\270\320nk6\367\354?\364T/f\217Z\342?\343\351v\322{\332\345?0\273\260\004\371\324\267?\247\223-\360A,\352?\371R\031d\235m\355?4\253b\006\206\034\311?jc\331\233&\366\325?R\007\254\335\337\314\322?\211Z\264R\230\\\351?\367@c\277\023\306\345?\227Q\035Q\227o\344?\207iPX\274\342\356?\332n\252u\312p\333??\036\337\007~\034\350?a\337+)P\345\342?Yvl\201\\\362\346?\361\306&l8Q\355?\n\336Ma\023\257\345?\234S_{]\366\345?y\315\177\034^)\351? \022\031TY\205\236?0\314oG\220\330\311?y\300\023\000R\234\343?\247\177\205\246\021%\357?\243`\255\230\033F\357?\022T&=\003W\321?I\266Z\022\033\345\343?dv\347\021)\257\321?\260`\321Qlr\317?\374U(f\375\032\343?.E\2475\223\317\347?\366\356\205t\302~\333?\270\306\221\220B\356\356?p\276\000\376O\r\261?\266r\276\2525y\326?yy|yz\272\355?|\316\332eEm\300?\250n\327WX\256\265?\254)8!C\265\356?\220 \370\000\237\276\342?\374\320\"\373a\374\350?\262\267\320B\353\\\353?\356)\025Y\223\243\335?\202\"\307V}\336\341?H\364\204+\323\366\316?1\251\215\245\206\226\350?2\005\000h^\357\355?\020\210\310Q\314?\304?\010\252\027]\220\236\306?\200DC>\330\227\206?dM{\302\377:\352?\353\307\333\036\322\241\352?\370\246\207\223\245u\335?\270^c\350\253\351\310?\212\364\226\304RR\351?\200\231\2720Y\345\303?4\273\005\262\300\024\345?^}Zw\033\255\330?\306\024|.\211\214\326?n0\340\226eB\343?\374\2659\370\277\322\346?\020\254\316t\270\333\277?\240\364\035\243\327\215\261?\200\334P=\257 q?\034e\365\207\006\324\340?\031\225\025p6\264\343?\307\222Q\t7\202\357?\021x5\372\231\033\355?\275\t\023\317\004\315\354? \320\026\201\005|\350?\3624\263\370t!\333?\350\260\244\322\356v\336?\217d\303\266(\213\343?|\246\"%\332h\322?\206a\362\3459d\323?\343\251\0017\237=\355?\000|\304\3636 P?H\331#\016pI\272?\374\344,\361\226p\342?\3009\372\"\362\345\240?\3369[\373\376\203\334?\372\266,\220\347\n\330?\n\330\216Y\311`\337?\224\351\262Gk/\306?\014\245\363%\2437\315?v\233\006\222\243\317\354?\262\232\364\311U\340\321?\022\335C\326`S\345?\024\326\320f\344=\356?\200\355\2513P\215\332?\322\214\213\262\244\301\357?\207\261\004\341\256\005\352?\001\345\204\305\001\002\356?A\337R\202q\334\347?!\311|\216\2138\343?pz\350G\372\210\275?\210Y\261?\255G\266?\236u2\377\220_\342?\256\246W\232;\023\345?C\300\224\325E\016\352?^\362%\253\022J\354?\350/z\356X\271\311?\264\324\312\217\313\227\304?5\207\276\271\253*\357?\304\207\255\317\254k\345?\234(p\364\324(\343?\320\003Y\255\271\221\256?\300\306\261E\341\004\321?\241:\352\227\357\224\347?\022T\177\343\t\214\345?\254z\331C-\025\351?\3108\337\346Z\204\262?\200h\262\313\n\252\344?\034X\021\034SG\333?<\303\262\354+\'\353?\372M\321v\"w\323?\205?<&Zi\346?\034\244\025\311\257?\331?[\2417OP(\347?&\3574\025\274?\350?\020\363\276\356,\243\352?6\2411\003\343\237\345?8\244<:>\225\340?%P\301b\241\342\350?\360\242_\016\275\346\351?l\2263\316M2\335?(\336\335\0213o\345?\220\274g\n\330{\312?\262\217K\367\343l\357?\343?\\\235\267C\357?\365Rw\304\316i\357?\3320\253[\003\257\344?\000\320\224\270\373\231\350?x\014\225g\257\340\302?C\006n\312\037\301\340?n\333G}\217z\336?t\204\370\312\2607\324?O\253\304hh\331\343?\200\302\020\275zI\250?;\3711\347\226&\352?`\245x\236k\206\321?\030\375\202\303@\020\347?(\353B\336\\[\267?|\377v%\327s\346?P\021\370_Kl\333?\007p\241\326\362\234\343?\257\326#\0140V\357?\252\0022?\242\337\332?b\263x\220\000\331\346?x\310\274\325=\222\275?\337\003\332$\337P\345?y\202\314-@m\353?\254\336\361\276\010$\324?\252\n\021\230\357\337\333?%\022A\270\036\235\351?\370\017\350\303,1\323?\326m0$\312\301\332?\230B\005l\207*\327?\037\025\313\001)\235\347?l]\254&6^\306?\374\006\364\336\203\332\355?\267WW\374\217!\343?\341\241G\274s\373\354?\374\025\343T\375\002\347?\272[3\255\350\337\351?\256\325\312c5\n\332?\234\357N\375\010\305\305?\305\013\216\261\3414\353?lF\255\326\237\336\311?e\272=b\030\020\342?\345\266o%\304\205\346?\300U\242\322\255\224\277?|#\n\300\237\262\324?\3602\245\364\361W\322?%L\212\205\374\313\356?l\327\377Cr\347\341?:\000Q\263\201\320\354?\\\305\320.\325~\310?vG\026\212\271\t\344?|s\362\266z\366\345?\300\036D\317\357\352\355?% =\2228\"\357?P\312F\270Yo\341?\250q\355\033\375\316\300?\024\035\275s+\252\314?\230\361C\357*\206\332?\304\220\207$\311\210\336?@\311\334e\"z\353?\276\341[\032\202\235\342?\276+\356\226\033e\347?@E\233f\202\354\307?\344u\344\006\217\250\313?\370nW\"\340\014\272?\373\371\253\322\027h\344?\324\035\204\2241\227\332?\374\372L\341p\r\332?\360\324\251f\2604\267?\370\242\003\371\340\005\316?\000\036a\033\271\005\354?T7\340\377\227~\313?Z\376F#[\217\344?X\036 \345/8\313?xe\357\215\275\036\355?$~G\003\0067\327?p\211\257\263\373\034\353?\244\3002Nw\'\306?\224\365\350\014\310\307\314?\201\024L\205B<\347?vy\360\223\302b\355?\177{\007P\374\212\341?\370\335\316\357\337~\323?\253\332+\277\2503\352?,\340pd\302N\302?\260\211\246\234%\313\335?w\361fR\372:\342?\375X\005\343\334\036\356?C\244)9Y\037\341?~*@z\322\347\346?\377\270\356\303#&\341?X\253\364%~\265\336?\272>n\254M\234\330?.8D\304y\361\353?\002P\024\210\364/\354?\244\212\366\260\337\027\354?\324\253mQ\037\026\313?\001\000\310\322 \020\354?\311p\273IF\215\340?\024a9c\274o\311? ~\027\035Z\260\267?\267\0304E\366n\350?\220}\236\227\233\323\347?2\313\364\236\360!\341?4\230\271\025\300\001\355?\226<j\033\302\316\345?\230\330n\033x\222\311?\340\314\226\004\006\355\326?nAy\214\305\022\334?D\324T\210\021N\300?\230O\245\0354\313\262?\',W\024&\'\355?\365\034\234)\322\026\350?@(\231eMd\347?\244\366N\373|\226\347?X\2541L5\"\325?\2728[\032\026\350\322?m\337gb\244\263\357?sn\220\255G\205\354?r\326\305\\\364\355\326?vh\354G1\254\345?(M\333S\245\355\327?O\322\036\217^\230\343?\014\3449\240z\373\305?\272\225A\005\214\277\353?\332\235\031\231\365\275\334?\370\177&\346\252\371\342?s\331\250\"\005\331\342?\240/s4q\326\324?\366w\355\\\236\353\331?#\231\313\341\253r\353?\020<\371\330\226F\242?\357\375\254\355\275\010\346?1\367!\262\265\004\341?\336\243\001\223w\301\335?\204\227\242\223\334\003\313?\241\365\007\343:$\354?\036\304\375\352e&\340?T~\305\242\207b\306?H\245\177$&t\302?T\250\025\215<\357\311?\205|\324\026\354\327\341?\220\304>\005&\300\274?\370\031@u\225\025\304?\334\221n\036\342\322\333?\030>GY\331\313\303?L\343\361S\001N\337?,H\016-\316\332\354?{v\211)AT\357?=b]\275\361\321\355?\000\305Y$uc\265?p\357F\223\243\021\335?0$\342\340\226\364\321?\310\036Y\0367{\330?\306\246w\371\342\224\336?B\275[\225\177\017\322?\"\263\243\342\010G\356?\223\214\367\020\336=\344?n\237Q\211h\212\321?\321!\303\326\017[\357?@?\201<\003\271\230?,\212:\3177\370\326?\\\323\246L0\265\331?\377o*\224\202j\350?u\202g\210\262\372\351?|\314\030\020\021\027\345?\360\010\361\351\376T\240?\\C%\'\272-\350?\252o\330\220\211\217\327?\367\024\270\202*U\341?\2103?\360h\233\336?\255\207\275\031\2478\347?\030\024\374\213\230\275\327?&\013i\325\353\264\330?\340\262\212\016\277\345\342?\314\224\243\366\256S\321?\360\337M\376\021}\266?\300\370\350\352\265\314\225?X>\356\214\270\304\354?h\214\347[$\371\346?v\320\277\377\265\313\351?\344\235we\275\364\354?(;\211\001}^\356?\363\346pj\342\333\344?0\311\307h2\343\311?\210\361\260\257\004y\262?\027\270\370Qrt\356?\030\022\350\345a\304\314?B\271\260V\321o\354?p \210V\'\325\313?\034\341;\013\001R\337?\264\336])t\215\313?\243RPV1\306\350?\010pjSe\007\263?~\331\006\325W&\355?\353\224$q\331\304\351?\313\035#{Rz\352?@\034\270\036\225n\266?\366\245\346e\007D\340?\303Z\374\273]\242\355?\340\2723\3479L\307?\375A\321\234\030\313\356?\234O\r\r\357\370\347?\004S\266\371\360x\342?\000\316\242\374\311\356\270?\262\364O\037~\256\345?F\376\003.\320\237\323?\270\255\345(A\260\311?\203\361~%\335\214\346?\001c\301\0241\254\343?\352G)S})\342?\334\300\361\222\237\007\344?\327?i:\007\270\345?\032\306k\243\260\356\325?\340EG\206\341\374\275?\252\232\3029\247\323\357?t\202t@\205\313\356?\230\026\273a2\231\301?a\030\353\336\014\010\354?\332\255L\377\323\273\325?\002\245\213\260\377\305\342?cg\327\022B\354\350?\014[\353\352d\220\354?8\223\177\235\353\375\275?\364\355\215ka\215\345?\254\r\232u\321B\325?\031\247s\226\307\333\345?\343\202\222\215\322\345\351?h_\323}|\024\355?-\027\\=1M\344?_\317\274\362\3508\356?\210[\271x\276\337\263?\322<{3\247\336\357?x\341-\020\247\350\354?\322\315\301\301\024\361\355?\020\000\203+U\362\240?h\260\033\210\320\335\343?\360Z\367s\201\257\264?\370c1\207\317\306\310?\216\260\341Zs\016\340?\2602@\005\003\025\263?28J>2\333\333?\200\256\373\320\362>q?\275\232b\343\351\201\350?\314\317\260\232v\363\306?.}_\207\005Q\342?\0209\225\275\224\031\300?!\326\034P\217\330\352?\244\265=>\031&\302?\276*/vr\033\343?\304B%H\234\317\304?\251Y\313\207\223\221\357?\327\3358\022\274=\350?\242e\311\013\276>\356?@\003vOTU\313?r\014fV3\200\331?\310\323\204\265z?\326?\200\003\013\016\337\"\277?\350\'N\331\250\371\307?\300(\241\366\t2\267?E@-\353\035\374\356?\3246\014!\345\331\324?\374\033d\374\264\337\313?\270\331:{\233\033\325?F\344\241\017\316\312\324?\332\007\276\251\225^\321?zS\021\367\314\314\346?TC\014Hf\337\347?\027S\357\2121_\356?\204\014\2005\210\275\356?\301\305\354%\342\351\343?,z\375\257\334\034\307?\3118\270\365\233\233\350?\024\237\343\351\207\252\325?\264\250\036\314d\006\350?B\306\254X9\016\324?\250\311!\230C\031\341?7\242-y,\217\356?\213Z`\205 #\350?\333\036:\331\3055\355?\372\213\371\253^\257\353?\225\2739\013oM\355?\214\355\345n3\214\330?v#\224\024\230\351\333?\014\\u\276\324\307\315?\213K\213R\037\210\354?\351u\2055^\250\355?\310i\203\206.\025\300?\212\232\347~0\343\324?`\'[D\352-\325?)\177\236\366\231\261\356?H\030n\244g\253\353?\010\177\216*\301\r\275?\3673\016\335\301z\353?\305\267\306?O\241\352?\000@\251C\232\233\030?\351<s\361\260s\356?rf\234\262S\255\341?p\032\347-\262)\250?(\332\030O\014\341\333?\204\001\257ZD\037\340?9\310z9%T\355?$r(\325\277o\341?\n\222\360\t5f\321?\320\002\267\3039\350\263?\237\332\337\255\005\253\342?\254\360l\345\313\026\354?~pO\211\313x\322?\350<\246\230P\022\330?\360\322\212\212\323;\331?\254\370\302\202\272T\343?\256\024\316J{\367\340?\302\251\313\346\247[\324?\234\351 \353\213\033\304?,\331\335\024\367\331\302?\273\376-\265*.\342?\361=\301!\326\233\357?\265\247\316{\245\025\352?Q\336\371\253\210\307\343?,\371\303\257\344\266\316?\223\253YQ\303\201\347?\340\345A\275\032\034\251?\003nk\337\024\311\343?\250\r\343`Y[\276?\2506\237?\206\023\332?\273\373\037\3454}\342?\304\367\3177\241\277\350?\374+\256\335~\303\301?\n\341\203\010\353\352\346?\375\177a\210%l\347?`a{\374\257[\232?q\227\373\342N\264\357?\376u\023\331\034\247\347?\245\327\226\331mj\343?\346$\357W;\223\325?(\231\215\024\267M\276?F\304\332=<\356\335?zYHzS+\357?N`\245\257\222\326\355?\334y\201\205\367\257\354?\010[zZS\364\335?\360=\203\014\327\244\277?\010\023\276c\037\365\303?P\360\313\030\\\363\352?\351\360\032\013\277j\340?8\210\255\344\233^\355?(\266\316=\364{\331?\254g\233\274(:\350?\267\250p\260o\031\345?\350q\007i\234\021\315?be\250\317\3410\322?`\276\017\305\260\343\222?\3365\'\014d\014\340?\332\210n\026\023\324\335?\014\010\215z\205\336\305?\2429\245L\246\006\355?@\341\364E\244\344\276?\252\315\344\010I\274\324?b\215\036\215\004\272\331?\307\324` o\335\350?\370\362\030\033\375\030\271?9\024\'\340h\252\340?\346\261\177\310\314\322\353?\315W\246\360\231w\351? \005\314O\017n\326?Y\220Q\240,\242\347?\213\027>S\272\260\346?^\275\353%\021\332\332?rG\323\345ST\330?\n\314\255\336;\016\322?\350\330C\034s\371\341?\356\301\r\000/\373\327?\204b\211wvI\354?d\030\220j\357\354\333?\200\2727E\013\342\331?(\202*\277\001\202\304?m\327\235FU\340\350?\'M\360Y\2025\347?\305\240\256|3\254\352?\314\356\351EF\337\351?\215\354OyL?\354?\234\362\355\\qw\357?\331\037\356\352d\301\351?\321V\375.2\024\352?\200\327\206\207\345zr?j\034\357\316\300}\345?\3456\324\374\323p\341?\210\212\203e\t\322\275?\360\"J\240\325<\276?\021\344\225S\337\r\347?\302;\302\025A\006\325?\000\370I\240M>Q?8\014\350J\232\310\325?\277\361\245\210u\226\347?\030\313\271r\273?\317?@[\332\203\371\340\254?\201\206r|\202/\344?x\364E\273Rs\260?w3\356\347\354\345\357?\256\006\365\356\033\316\323?\350\306I\316\331t\276? \005~\235\226\232\330?(\341\207\216^D\347?X\273\375\360c\265\332?\220\267\215b\231J\305?\210\274]\034\264]\306?Qp5\220\314b\342?0&\303\264\251\265\274?~\205Y\347\344\223\337?\300j:\'3\316\231?\364\004S\020\264\351\356?H\212\266%>\315\341?\300\360;\220n\332\245?\3110\233d\021\325\354?(7\277]c\372\334?n8i\350?\206\353?~\211f\312\360\033\357?\320\307\227 \307l\312?\205\313i.x\376\343?\211x\337\347\212\333\356?\210\3661];\247\354?\236C\223\250\300\030\347?\200\233\231\024\267/z?4\200\026\221v\007\326?\341^\317\003JJ\354?\032\302=\032i\242\326? \tDo2\236\341?\2303\030\340l\000\345?\324G\027\'\336\365\322?\1775\366\257ef\345?\203\245\231>\371P\357?\242\347\337\267\243\027\333?y\332\024\205\004v\353?\277\014{\274\202\031\354?W\214\212\006Mj\350?\334\300\230\321\224*\344?\000\376\347\3729\003\352?\3302x\216\r\307\260?\244c\t1\210\363\332?\200\021\277V\350\246\201?\363\254\231\324\357\021\350?\r\312\373\223U_\346?v\3534u3\371\355?\305^53\366>\356?\320M\311\255\345\355\254?C\255\236W\007\275\347?%r~y\307\267\352?x\311S~S\253\350?p0\261\020\r\r\276?\233&\t\014\264\303\352?\334\027\013\020\250\303\324?\340\337\n\215\234\225\354?\354\332\274\036\3300\340?\270W\333\255\365B\337?\274\326\301=FL\303?\260\210c\321\024K\276?\002\215\216\343@\374\342?x\276\336GpC\333?\014&!*\310\376\331?x\253\204bY\026\334?\232\274\231\255\377\221\333?x\313\237l\2566\346?\255\337\025E\204\227\350?\352\335x\366\232&\355?\020W\253Bw?\252?\260\345\360\352\3039\356?\r\246\031\241i\223\346? \227\251\350\307\373\276?P\2251\n\371S\301?\300\274\363c%i\300?\270`\276\361\217\360\346?JR\353\376[\n\335?\344k\202 \221\030\330?L\271\016W\327y\345?\325\265\327s\225\243\340?\240\367\226\t\371\225\223?\372\231\344\252\265\326\343? %\206>\254\033\316?\026(\010\036 \212\337?Z\365G5\006T\342?\332p\304\240\334\226\332?\354y\214\302\003\235\331?\202mys\tl\324?\310\331<E\341\362\321?\006o\323\227\257=\356?\246\307\202\351\370Q\334?\332O\007\314\2439\353?xT\247\341\027=\335?^\265\253\317X\313\336?\274\317f\203\213q\336?\250\243\270\215\375\257\271?h\252\245\365\375~\265?\222\303\311\245;x\356?\350\363AA\017R\265?\010\017K\r?\250\311?\320\260\333V>~\335?\240V\222\235\220\203\327?\370G\264?\013\275\301?\016\264E\342H\251\346?\033\003\263\355\257\000\344?mF\014\221G\247\346?(u\201\353\302\261\347?\"\337K\000\277\031\327?\342\325\202\226\037\235\345?C\334\225Q\311\213\341?\302\320\343\217\203m\323?\222\024\352\244c\226\345?\\\262S\022<s\352?1C\354\326\341\313\342?\326R\266%0&\344?@\005+\3454j\210?\234\221\340\203\257\233\357?\036\242\266z\243\272\352?\345\334\314B\032\221\350?\000\330eI\257\212\330?\253++\330\236%\340?2\320W.K\254\332?\274>a\005\007b\325?\'\000\305\352\211w\344?\032\027\210s\3301\335?X\276\270\361c\232\275?\201\341\265\301J\310\356?\036\307D\"\265\224\346?\000`d\246)\235%?\2323xd\255\371\351? \220Re\352,\274?P\272\014\005}\220\274?\003\373\262s\0263\347?`\010\253K\236\036\251?\364L\276R\216\024\327?\006\326G)\356?\336?<\010\035j$\303\344?6\377tOt\032\356?\304$\013\377\033>\332?\210~\026Z\306F\304?Zr :\363\027\332?\266\265\305\324\335\032\347?d\002.\250\264\356\315?fZ\007\313\345Y\343?$\314\236&P\267\314?\036\037R\240\205\021\334?`U8P\334\016\262?&\336j\313\303t\333? \221Z\345\317\322\346?\2265\373\244\354$\337?\250d,\242\002\271\276?\344qD\327!\237\354?\222\376Qf\354_\347?\307\275\233^\026\217\357?M\375\232kR{\340?\204\363Yj\032_\354?T\250\202T?S\351?\3427\205\264\261\307\325?(`\362<X`\305?\344\260I\300\031\370\321?`Ce\210\307\r\316?\034\rV\371/\261\322?q\243\tM?|\343?\350,\023nL\377\262?\344\355Pp\366\n\324?\360u\0337\361/\256?\266\212a:\324\247\352?x\343\317[\224\202\334?\377\341\263\235R\271\344?\242a\361\020\253\231\331?\200\026~\304Of\231?\031Z\010\223\342\255\340?\034\227\353\025*\224\306?cA}!\334\341\341? \265p\337\2474\302?M4f\025\372t\354??\035<\257\243\343\342?\200\030\367\237G\373\251?\\\032Bs\033\200\346?`(K\323H}\311?h\373\371\223U\273\305?\214rG:\204\351\335?.\324\227b\206g\326?\207W\rI\366\203\345?\334\326g7A\221\305?\300\211_l\221\316\323?\350\335\271\312\222%\326?\360\025m\220\245L\355?^\304?\353\023W\341?\306\275s\232\323<\352?1\3576h\276\260\357?\000\326\325\272j\275\235?`\325\321\3137\002\314?\037\204y\0134\270\340?f\2667\276A\315\336?\010\001|\335$\\\350?\200\310\263x\306h\342?\355\326\3603\000\272\353?(\362R\327\305\300\355?\241\001\351\376\035\333\354?\322\325\257[\210`\320?\304\272\032r\244\037\356? \217mMt\016\226?\"=\224\326\035\r\323?v\347\362&\017\350\355?\360\315{\025\215\254\262?X\217\351Q\006\342\324?\220c\250\343Y@\246?\236\211r\216G\034\321?\310pz\"\362\000\354?\030\224\200\335\253P\356?\226\320\022nT\211\340?\211\234Dhnt\346?\234T\244\277\271\367\334?\024\267\312\376\217\203\342?^P\004\036r\344\337?h\211 \314\3003\304?`\214\332!\320~\336?\354\326\315\017R\270\321?\000\235^+\252\004\265?\360de\353>\371\240?\350\td\252W\221\320?|\200\024\262\370[\336?c\006\3624J\372\357?t-\240z-n\341?\254\250\t\243D\230\353?\334\216\242\270\347e\335?\024]\032\247/\246\316?\220\203+\324\232\027\326?1\342P#\320\222\353?\000\245\267\325\320r\320?\200\001\252\267\365\221\260?\242\237#\344!\234\356?\326\000M\301\224\243\342?\376\371\034\315hs\332?\312d\332l.P\355?\217G\347\346\317\264\344?\342\333\330\227\017\244\336?J-\267\330\270\032\344?@9\265\370\231\275\245?x\234i6\236$\331?\340\262|/\036\013\353?.\270\266L$&\332?\335p\033d\361\315\344?&\253\022\306\\\242\320?\260 \002\034\000\341\264?\034\317.\202\322\326\314?\233\037\016b\323\030\347?B:\325\233;\317\321?\2044I\247eI\332?\256\037eHr{\332?\210\305`Y\031\r\310?\330\325Km\377\036\334?\371\233\345\t\257\356\353?\270q\234\343M\330\342?v\210@d\317\370\330?\350\0109\331z\030\270?D\216\232o\022\351\312?\322z\363\204L?\324?\014\320\307\270\324G\357?<\374\302/?\016\302?|*\3379\023\256\323?I\354\356\305w\345\346?\270\314s\004\334\033\301?\024\215CH\004\342\302?\350\217\231?\226f\346?I\213M\204d\334\352?D\345f\020+\240\317?\032z\nZyn\357?r\222\364O:\334\327?\276#\036,\230\260\331?\302~z\335\337\020\337?\260\032dQ\340w\310?r\230\320n\313b\327?0A\005\031\262k\244?\375\255\254\300\320\177\350?P\243B\375{\266\321?\000R&\273B%d?\230\231\324\325\243^\343?\016\016\017\365\274y\342?\344?\001\302\306\371\346?\226\024\205\254;x\346?\373\203\214gf\322\343?\234\356\347`\n*\356?N\037mX\275\246\325?\2003\013\375\236\213\220?\232B\242A\225\341\320?r\265\232\262R\350\322?v\241\215\013Xd\346?\210\241\352Ex6\311?K}KpA\252\343?\244\222\330\247\331\346\333?\235\266\273H\226P\355?\263J\266cP\261\340?\236SX\367\273u\346?\3102\273$\304\207\275?\312S\245\324\247\340\350?\007ieQ\005j\340?\274P$\035w\010\356?\220\200\215\025\333\261\262?``\271K\331\030\264?\364-\257b\243^\326?t\305%l>\246\314?H\277\212\tH\371\356?hA\330\242\037O\327?\n\370\317\016\223\342\357?\304\005\030`\327W\312?\364\244Q\231\320\260\341?\324\220D1f\237\331?\034\234%1\230\233\321?\356\327\224bW|\357?\264\205!1\316\300\346?@\224\rX\355\270\201?\020h\265\315\031\373\304?\227-\361}~9\351?\240Q\254\371\200b\221?\270\267\215\263n\237\327?,q\033y\334A\351?\213\324\353\004\373\303\350?\312u\204\017\2215\350?|eKz\267\244\313?`|\274\312\007\005\253?\001f\315\001-\274\354?H\0054\227\'\273\324?^\032v\201\251N\335?\330\275g\261\003E\260?\234F\"\207\013&\356?\323\211\366U\000T\354?2W\224\374\377\330\345?X\333\021\310\023\253\340?\255k\215\225d\030\351?\364\313jX8\214\337?\336\035\022\364S4\336?+\224\264\372\360\320\356?\354\214\271\030qN\323?\000\021\364\236\233yf?)O\211\251s\353\354?8\276\320^sB\326?2\373d\353[?\343?\256\342\375\364\036\226\353?\205}W\234]&\352?\020\353\004\231Z\256\251?&M/\361)s\354?<\247\2145\\\237\304?\310q\354\261\270\353\276?\242sS\241(\001\341?\3669\325\302\3564\321?\330\364\201\033O\270\324?\304\372/b\303\374\311?6\250\336]{\207\351?T\261h`\246\277\301?\035\322\3607oj\346?\200\306\242\017\255V~?TDM7\010\340\306?\353\307\301b\327\347\353?\3679\300\\4{\341?\256#\344\2371\301\347?\217\013\303Yc6\353?:\360e\302<I\321?\256\226\202\352ac\334?nve\306;\017\355?\020\362y\346b\350\334?\246\r\272\3777\177\356?\020\227\260C\235>\304?)\201Z\302H\360\352?\200%:r\343\026\226?\327\363GI\227<\350?\035\311{\321\274\211\341?\374\303]5&s\322?1p\337\025\311!\350?\267Xg\335l\365\345?BX\326T\252\002\331?\255\352\305\365\370\246\342?`\345E\030[J\333?\223\n*\353\324\361\341?e\3122\200\035d\354?($\027\347)=\260?\310\216@r\034L\331?\363\273\314\036\032)\355?\324\327\356\005\342\315\341?IF\264Zg\027\345?\260%\002\237\232\255\252?^U\023K\3265\333?\004{e\366=\272\307?6N\223G\207\210\346?@\240\027\253|E\344?ho\035\322\017\002\300?\342\265n\356\'\334\330?{\335ckc\016\350?\240\332\347\345\340\324\232?I\312\213\343\341\017\345?\325c\376\376\246-\342?H/\304\037\214\036\307?@\3468\365\243\255\264?\207  9d\244\350?K\t\326\024\016\344\354?\343\237;\032\023\317\355?H\030\362$\321f\270?\370\362z\262\006\323\267?\233\365U\352$\002\351?\343\344K<\237E\357?=v\006k\320e\351?\324\324<\230\207\215\307?]/7\340\\8\341?\362\201+\223\300\212\353?(\025\2073y\377\315?N\331N),G\337?P\235\003Ft\330\246?\315\215M\313R\000\344?l9\313\244\276\267\324?P@\2510X\243\306?)o\007i\224z\345?\316}\2702\266\240\326?j\033\014\030o\272\345?\340\312P\204Xu\311?P\242f\267\224K\337?\251\303\254c\354\244\351?\220_H#!e\247?\336m\030\231\256\375\343?\337u\264\272\'%\350?9o\324=z}\342?\257\334_jE\266\357?\232\340\225\373K\306\344? \273J\242\213y\334?\200\256\023>,>\351?h\'\265L{\035\302?\033\202\310\204\345\213\350?\267\264Z\262\247\n\354?2\211,+t%\322?\354\r\367\241\372\362\346?\326D\355P\"\260\353?`Y\r\204_\253\313?\000\343= \344\202\226?6s4\212\253\262\350?\200\363\216\354Q\221\314?\030_\327 8q\301?(\265\265\366G\031\310?\300pkD\301Z\324?\246\201\237yK\032\334?r\330\255e\034,\331?\324\346h\243\311\365\342?\264o?\371\321\215\313?}jY\037\272!\350?\244\367\274\0346\346\337?\340Y>\233\030\010\250?\270\225\237\347IP\263?\0224\375?\370\002\332?\214\210\350\007,G\300?\030\374\337\271\262X\306?\330?\215Y;\335\341?\254G\004\263i\356\324?3K2! \255\342?\014\274\270pC\337\326?X?\367\340O\266\306?$\365Xb\320u\326?Li\016\251U|\326?\200\276\032\364:W\227?(7\331\240\374\222\337?*\307\0037)\312\334?\200\226iN\315\364\352?c\325\267\207\227\312\345?\326J\315\272,\016\322?q\303\267\367\222\203\355?x\345\321\320\315\005\344?\212\261\205.\316\375\352?\35091\355\002H\300?\260u\330\325{N\251?\242zJ\001d\235\355?\261\236F\314\214\'\347?@?\226\306\020y\302?\250\215:\241M-\317?\3070j9\203d\342?D\312\014\036<t\306?\240~\216\204\244~\226?`\205-\2045\360\275?\000\020F\177Ln]?ovp\322/\256\343?ckIMRf\340?\236_\243z\336\205\337?\277\036\366\337\234\000\340?\200\375\236M\361\326\310?\260\360\343e\352\003\272?\230N\360\013\021\300\277?\253\360\031\303mJ\350?\336\356Bc\243\'\331?\200m\305\002A|\265?\370M\307\247\366\262\352?\237\310y\255K\357\350?\375\003\177\327\233\210\341?\361\212\372\211\373\204\340?\0145\276,\236\013\316?\360(\017=@\215\323?k\246\252\217\267\022\356?\220H\331\227_\241\260?j\275\307\362\226s\357?\320\266\207\205\316\013\252?\016\361Pl\334:\344?8\326\274\276\033B\305?x\224@\210\324\213\300?\340\337\234^8\337\300?\200b\260\037Pv\260?\272o\263$%\240\342?aL]\232\033\360\355?\360\032\202\345\344\226\342?\300)\376\331\322\346\242?f\262S\211\031}\320?\264/@\220\006\010\340?\003u\341s5\276\352?\222\264\231I#\315\326?\350\377\377\201\026\237\350?\216}\003gB\002\335?\370\264\312\344/R\276?\220C\270\235\210\327\267?\230\243ec\374\262\315?\211\231\027dqo\353?3H\017Q\312\203\356?\35441\206\264P\352?l\372\242#\301r\312?\244\215gG+c\315?\374\245\342\316\203\330\313?\316i\240\310t\334\352?\232{\3370!\255\354?=5\312J\205\334\353?\266\301M\355\004\303\341?\310 d\362\262\240\313?\234-\236\361P\000\301?\000od\003\034\255\303?\232g\353\036\357\257\355?v\243h\032f\234\342?\200\236 \237\247\023\207?@\350\023\031\026~\245?\030\332i\317\3769\340?zV\200\357\n@\356?\350\006B\334\377\000\320?\216\004\013\035\020\300\356?\030\315\034>\341\374\335?\340w\267|\326\321\243?`\177K\210e\203\310?\210;\033\367e\235\275?:\206\301\250 ,\357?\340\304\303\0273v\327?\212\301U\0162\201\331?,6\265\277\334\254\344?\217\246\367C\233\027\345?7\371\240\201\300n\353?}\253\373\031\273D\353?\377\336cTX\227\341?j\206\301x\304i\357?\306,\262\353\320\265\327?\010[\232\221\023\220\335?\200\335\177\250\223\300\340?\004\025\t\362\360J\312?t\213\035\333\3615\325?\316N\360 d\257\354?\361\325\242\336\303\231\350?\240\226\207\037y\253\325?\013\317\351\315\002n\347?R\271(\324\375L\354?dLz\270\022~\327?\010-)\276#a\306?\002]r E\021\322?\177\253\334\346\347\200\354?3_48\033\026\344?x\020L\323\217\330\355?\304\207/\273a@\346?\230Q%(&\260\336?\200\nHexk\322?\024\225Ci\256\262\330?4\363]\006\332^\350?\304t;o\314\370\311?\020\"\254z\255\260\263?\300,\361+*\252\200?3\313\300\237\244\374\353?\376w\214Y\322$\333?\363\275\002\234\177\022\350?\240W\234T\003\026\331?\344\005\030\265\333\325\320?\304\205\226n\276Y\346?\236\"\356\256Y\372\350?\027\364\r\221\345\311\342?\312>\242CTY\353?\3204CV\255O\244?@\027\367\310*\026\241?\007\3260H+i\340?CQ[\237e\030\342?g\3633\252\211\266\353?n\331\373\322\240\334\325?`\016H\020\356\365\251?L\3544\341\342\301\356?\337#9\217\024\004\343?l\364\227+9\241\352?\250M]\267\300\304\311?\220\024z\010zs\246?=\021\260:M)\351?\212\372\301\025\031\243\320?\324\242\272\335F\002\320?\313\\\'\355\263\233\342?\274\254Q\317\363\242\354?N\200xV\247<\350?t,\351\363<\021\341?\035\374M-\345\354\344?\242`\336;\256N\332?\244\037\307\007\320Z\327?Q6\276\346\220\034\342?\234\364\276\177\020\304\330?\246\3565)Jj\330?`~S\014\310\237\265?\2565~>\201\363\330?\272\204\270\352\344\313\356?i\223\252-\n\263\356?Pq\350\031\003\035\352?g\3707-\331K\355?\245\021\233pA\277\341?]\316\261>\254\007\344?v\363\202\232\037\342\333?\360\021&\224.\016\271?\354\351\201\214Ry\322?\364O%\273\021\336\324?\347\342\031Z\0147\341?\234W\010\013\023\307\301?b)|Q\376\353\325?\037F-\332(j\340?\311\335\332T\364N\352?0\216\022\272\323=\240?\260ZX\037\022\222\321?v\354\022eUL\345?\026\330\356\327\027\252\350?\256&\367\303\266\014\324?\034\236IJ\266C\346?\250 dj\236 \351?XX\0049\235\356\337?\314\212$O\036!\357?\334\361\236g\301\t\353?\223}<Rcu\355?\265u\001`\263\326\342?:\007\340\234\017\212\345?\370^)\014\013\253\264?d}\022[\224S\336?\220\034\342`X\270\327?\270\240eD=\217\313?\300\355\214\333\211\272\247?\213\356\335-\334\000\343?\r\353\005\374\273\201\352?x\337\337q\252<\266?P\270v@\"\314\277?\364p\246=\264\304\313?[T&\226\220\356\343?\356\243y\306\372X\337?b{W\207\272\344\355?7\204@\342\302!\350?\354\327,j/\001\300?.\'`\216\252O\322?\336-\\\311\336\276\336? \330\321$\367\n\276?\220\357^>S\031\251?\\\345K\264\255N\342?\030\200Z\324\343\256\350?\331\327\232\201\021\223\345?%\366:\t\004\'\347?\242\200\010p\236\353\354?-v\353q\323Z\356?Q\2473\214k\367\347?~S\377\273\376\030\324?\264!\356Fz+\334?\240Vm\313\332}\246?\010eq\201\213\275\352?\201\217\306\2313\361\354?0K9np\250\320?\024\033\024\345^\332\337?\354\364\271\204`$\316?2\372\']\213\t\333?\374K\016\016_\202\303?h\243\326\330\366&\272?\235\002\033\340\350\217\353?\024\013\200\323\000\351\307?D\264 \t\342\245\310?\376H\257\177J\\\343?\026\304\340\243u\277\324?c\223\310\262\376\n\343?\250DH\255\314\335\334?\272\245\375\343\372\351\347?\206W\361\264\313\210\323?H\344\273\307\260u\264?\000\r\371g\360@o?\004\331\211\210\366W\305?\300\262\331!\254z\354?\334\241!M\255\250\302?\240\354\3534\267\345\357?p\227\221\2466T\347?6\264\242HR\244\357? e@\343\005\240\262?\306\262\302\222BV\350?\000O\032\226\240\231\201?\000\033-+\r\031\211?,\317\274TS\262\325?dh\327\201\3327\310?p/\371\227\257w\300?\'\2520\377\306\"\344?R\275U#\272\311\333?\370\2541x\362\274\270?\\\206h6\\\\\327?\021\230\211z\364\243\340?\\R\205\375\027\261\336?Z\216]X\244b\324?Sy\276\001dh\345?\000\rL\371U\365\213?\266\300$\"\277\020\323?\356\016\370\375\341-\342?$\241\235\266\236<\305?\340\216a07K\357?lv\365\326O\346\314?X&\370\221\217\r\324?vOZ\020\014\022\347?\270!B\350\212\007\351?,U\213G\367u\306?\356\240\375\006\311\303\320?b\007Sx91\343?\\.LM\030a\343?\340\250\031\365l@\334?\233\242\005\370\320\205\353?%R\366\365C\271\357?\314\262\245\211\252m\305?\306\301\030A\260Y\354?0-\3606Ld\243?\001x4c3\345\343?T\223\300\203\326\256\305?\020 \010\247\260\363\272? \262\262T6\254\241?J\326\267A\307{\344?R\252\374L\237*\324?mU\34051\\\345?\340\207Kt$\215\243?,\347\n\367J\201\322?t\260\252\262>v\345?\036F\036[7;\351?T\230\242[\222\231\306?\035,=\\\337\246\340?\240;y\363~\353\337?\340><=\262\277\222?\317=\211\371\256\216\357?\020a\356\241;\356\274?\207\336Y0\215\031\340?\000\270\213\177\205\347Q?\255{\n\231{k\355?\302;l\265\177b\350?k?\023\016~\374\351?\205\217J\305\037!\352?B\251:\010\265]\343?\370\272\007x\r\273\320?\020\262:c\025\343\240?]\301\t\360\230^\354?\324\212\274\314`\245\333?\274f\272EsH\317?\364\021c;\2757\340?,\237\016\200\200\026\337?\026\345\330o\230\263\336?\004h\n\256Z\216\332?\034@(\325\243/\306?wM\334\021\030W\350?\262X\373\026\215\221\323?L\201l\204\007\245\355?\to\300P\023A\355?dJ\003o9\245\322?{\301\030\307\035\r\344?\306ssn\252\r\343?\234\312\317\306\366I\310?\220\237%Z\361G\255?\322\300\320\026\242\243\352?\000*\237\003\363\363o?\366\312\2569\231l\336?@\243\226\357\3005\351?\320\023\327\272\032j\342?!)\252W\317\005\350?\024\203\004\366\324I\304?\324\352`\331$B\330?\t\303\254f\204[\356?\222\243\022\231(\350\323?\341V\211\344\245\316\351?l\264\232t0Y\330? Y\365\016\220\360\315?v\376\311\360z\000\322?Cd\277\\\016]\351?\230%\354\340\274l\323?\014\244F\323B\367\320?0\344\177\267|n\251?\344\220\262\0326g\300?\302\027;\203\224\004\330?\256\\\207n\220\247\346?\264\275Z\235\356\366\326?\267\314;\350$\033\356?\374\272s\340|\214\342?\310x<P\223\007\325?\334\206\367\347\274\372\331?T\250 VT\334\335?0\346\366U\001&\345?\372\333\337 +;\347?\370>\370#\336z\313?\004\000+\253\313\221\350?\304if\021#^\357?\035\225aZ\025P\341?\020[\310\017pD\352?dvR\314\0233\310?\201\301\314\341\212\242\351?\340 \341\323\\\300\264?\220``\n\027\270\264?\316\023\255\004y\013\340?}|\211_;\301\353?PU\343\223\277o\262?\214[\\\337\007\016\344?\260\034\240\304\227\211\357?\240\213X|Q\333\246?\205W\206\231\252\364\356?\215\266\206)\214u\356?\020)\030J5\247\266?\227\0047\266Bb\355?\216\205\274\036\251Y\353?Y\326\321\001\202\002\350?X\216\r\315\224\300\304?\272*|\216<\307\353?\230|\274\2453i\306?\2408)Z\241\304\334?4\222\334\231N\237\335?\341\325eT)\034\341?\242\004>\312Kd\343?\000g7\322?3\321?\326 yT9\357\336?\370_\210C\225\264\347?\306\001\237\202!\031\327?tQ~\364\236z\355?\212\334\352\335=\013\340?\2746\350\334\232\233\306?p\277\232S\267\n\252?,1\376RN\016\301?\240m\377%\024\207\347?e\335\306i\3124\340?\364\242\023\233\310\233\306?p;\001V$x\344?\030aO\035Ru\300?n&B\360\305\335\345?k\351\340E\177c\344?\0140y\032\203\036\322?\250\211w\307{\332\336?5\255\270\265\014f\350?\030\026\214}}-\321?Z\273\212_\364\n\352?\324\261\2014\275\255\320?E\222`\307!\205\347?\264\265p\273-I\334?\301\013\302Q\301R\342?\002\036\370\035\233\001\346?\nH\351\353\200\321\355?P\350\323\306V\210\356?t\266\306\302u[\302?\001-o\365\275\377\340?\020\334F\023\360V\307?Z)V\365t\341\352?\324\006_\301\314W\335?t@D\025\215\035\353?\020\357\34109a\256?\004\211Vx\360\262\300?\202.\375\010\352\235\333?\016\365[\213\224\035\326?\240\310{\326\221\235\221?\244\323\357\257\325$\347?\004\234\n\234:\227\344?\360\317S\220\211\007\266?\304\345\201\245w(\325?\362/@|\236\361\352?\374R,P\204\253\356?\314\316q\266VV\325?\317\201\326H\255\211\350?\276\275\227{L\354\347?\300\3644\264\r\022\305?`\371\375\214SC\270?t!\017\366\317{\321?\322[+{\245,\356?q\375\313\354\233\333\357?\215\257zK\327\214\356?\277\037\371\377\023R\354?\315r\301\375{\300\356?\350h\211\330\232W\341?\356\233U4\254\306\320?lM\206\014\177{\334?\314\010\277\305\032\347\357?s\032\025\226\310t\354?\315\246\273\266\332z\350?dT\005\242\272\214\333?\222\241i\370\354\244\326?B\262Cc\006\237\356?p\377\t?\274W\302?\226C\333\017\222l\345?cf;n\316?\346?\310\033\244+N\260\356?\177$\213\277\212\205\341?\210|7\355\317\\\312?\236\341%m\334p\346?\230\000\334\246\246\005\355?Bra{\344&\340?\033WJ\374^\250\352?)\253\013\377m\321\347?\2401v\276\232]\322?\261\341\271Ml\262\351?\004K$\365\n\177\323?\nC7\301\013\026\323?\360\177\374_\235a\334?\224\314I\200f\213\315?\020\214}p+(\264?\300b\270X\003\362\221?\364\320\247\305\354\024\306?\334\204u\201+)\341?,\241\370\342F\306\321?\326\313\263 4\326\327?:\260\362|\332F\333?9I]ZV\305\343?\024\237\346v\206\237\343?\310L\001\247uY\304?M\3343\177\374w\344?\223r\232\3521\257\356?\251\353\215H4x\341?\223\032A\352*\373\354?\274\215-\037\373\310\352?\3220CP;\024\330?\350\236\346\267\377\316\345?\014\375Yh\317\005\323? \222\324\014\333\315\255?Ep\245\357\343\240\344?\245G\305L\3127\354?@\023\\\256P=\247?8\227\0033sv\312?\016\373\371[\030\014\356?\231\320\246\306\242\274\352?4\t\321\345\217\251\330?3\360\177\250\321\314\341?2U&\333\027:\343?\330\304Sy\200\342\350?\232\206Y\'\233\202\320?.\t\247\275\005\332\342?p-\2668\327\225\315?\030X\211\\\237\341\276?\324\305\342\210\363\274\340?I^&\202V\356\357?\350\3229\005\0323\267?\307\345\\\204\265\253\355?ab\t\224AX\346?Pb}\360%\233\312?@@\313&\346\313\227?\360\367ER\245\302\346?\370FY\320\343\262\330?\243\013\320Au\210\340?\240\265_\030\376\255\275?\305\347&S1*\340?\306,P\203\261$\326?`\0215\366G&\222?\000\304c\312b\334\350?\332\007\031\364?\376\325?\235\234\226\014Tv\343?$\026l\014\223B\322?\001B\256G?\273\340?T!\232\037=\"\314?\034\313\257\006\214\367\300?v!O\316\233d\337?\026\020Y\262\250\275\333?\206\262@g\364\214\342?+LF\2518\243\342?\362D9\2533w\350?\272\201\034\274\352\016\344?\314\201\351\336\277p\315?P\301E\351\242\344\331?\037\216\250\344\266\013\351?8\340f\321\n\304\337?\360\357b\276\002=\352?\020\013\214&>_\272?x7D\201\013\355\325?ON\254\327\377\377\342?\244\357\340X6%\332?\351\322OKcE\342?\2706\204\257\025E\325?\361A\341\235\2473\346?\006\214\030\026\341*\343?\030\352J\021Q}\335?\030\234v\\\202\274\335?\036n\360\225\332\220\331?\033b4\243\016v\347?pN\013\021\362\007\325?\234Cn\'\303i\357?(GH\034\303\034\276?\236f1\024(\207\357?\200\254\276\220%$\324?\240\353u\'\327J\346?\036\366\342\031\346\300\356?\003S\233\227\200\273\357?\327\205\252\363\304\233\342?l\037!\232\030\347\352?\310\231\301\0355\271\317?\r\177\213\340\005\027\357?\306Sa\354\374\203\327?\372\213=i\261\254\355?#\225\317\341\275g\340?\036@\241\2170t\322?\211\316\362\374~\264\340?\000XH\257\264\373M?\014y\366\236\374!\305?(\213[\233\255\257\300?Yo-TYr\343?\266\035\257\224\n<\322?\335|\3453\025\364\353?\375\310@\346av\357?`K\314\027}&\303?\264\202k\271j\317\333?\340s\344\353\241\363\235?\357ul\241\243k\345?\350S\365\2151m\354?p\004l\021X\366\322?WO\212\340\006\177\355?w\322\354ch\314\357?\316\375\217\032\370\370\322?^\021p\266z \343?/\372O\302e\n\345?\352y\340\344\341\373\331?\020\014\006\342\013\032\311?|\213\332\304\221\240\353?l\277\354\310\210\373\330?\242:y\324\232\351\350?`s,8\263f\253?\324\006-\377\206\274\317?\000\261\317\217\257\366w?\007$\241\211\363\344\345?\260W\257\241X\261\240?G\272\241,\014\333\340?B\241\224>\r\343\344?0\2573km\320\356?4\322H29^\332?Z\025\343\216\314\253\354?\000\223\2675U\240\233?\224o*\271b\251\323?\024\302+\227\270y\313?]\226\3425=\265\356?\230\271\234\264\003)\266?xO\274b?\323\264?\300*\360\037\"=\223?\0200<\t\346\213\325?0\r\335\373\262\331\273?`\334Q\341\0309\323?\"\371{[\342\224\330?\204\267I\237\033&\302?h\360\t\352RR\261?\214\366\014&\341\022\350?\324\t:\311\363\267\330?@5\325\264\204\245\261?\366\006\371\242\203!\357?\200\305\213\306\336s\246?h\355\236Re2\353?\214\3001\014\377V\344?\374\245\217\266\316;\303?\337\373\264\243{\233\347?P\237\326\201h\215\261?\276\302\341\000\300\002\332?\326\211\004\344\267\313\323?\364\'\3746w\343\351?\335\366k\266Zj\347?b\372l\253\336C\351?\204k\026\337\271:\332?\377\304\357N-\263\356?\301\301v\267\355\346\357?\2242\312\261\"\250\327?\t\224\333\346\231\356\344?\nv\276r)P\344?T\306\337\317 \202\300?>\234pF\312\277\344?\r\270\330&\013\025\344?\331\005\377\223\260\242\353?\261[t\257,\223\345?F\014\022\217\323\020\326?\224B=\003e5\324?x\"mH|>\270?~u\365\341q\276\344?\354:p\t\374\311\351?\\\\\010\220\273\332\300?\264v\347\251\235!\352?\223Cm\205\347\010\355?\034f\366\326\224\371\307?\300\004\343\331\345\036\357?\336\200\346\316g\264\332?~\276fr\267\360\331?\320\024A@\370#\305?1\027\366\3029P\341?\224\007#\267x\277\300?\311#\331>\031\231\356?\354\3057#\275\301\353? \275[\217\235a\320?(\025[\336%\241\356?\000\213\305\345\362x\304?\225\032\220\275\'V\346?6\335V\213\250G\356?\334U\034A\300?\337?\226\355\202\242\345|\352?\314\014\377\300y\376\311?\323\024nY\016\333\345?\214\t\313\310\037\027\307?\177^|#D\023\344?\347\342\241Y\tb\350?P[Pd\360T\316?\370\003\360\361\211\344\356?\351B\330\365\375\340\353?\3407\003O\257\215\265?\317(\245\3530\272\356?\340\322\222\030g\262\272?\300-kWT\301\274?\264@`E\020\323\306?\300\201\220\264l\372\316?\014\351\224h\274X\304?/\020\311u\326r\343?\304\341\"4\367\204\347?\265\227\302Kq\306\352?ny\232\266*\261\340?\330\346\260\316\227A\310?\220\020]\217z\217\345?qQ\2559&\350\350?\340\224:U\364\341\234?\357\310\217\247\242\245\343?\374\301\2142\\\031\334?8\206\252\027\237!\300?P~\333q\242}\330?\310\2160\013\017\014\353? \207\002Tr,\321?>\034\177\231\222\321\347?\3659\370f\\\322\352?\250\251\244\222\275\312\264?\024\030\271\303\335U\340?o\022\203\306R2\351?@\220\353\333\357F\357?\230\024>\r\035\247\266?\244=\327\212\237\311\305?\310\032\321W\"\351\276?\000\376\340\212`1\322?\202f\225\226\370\221\341?M\206\207\202\317\367\357?U\007\334\'\310\376\356?\340){\212\244\306\316?\200\034\215\002\000\244\247? h\344J\376f\265?\300\231\341\0254^\335?\\\347}7\373I\333?\234~\351^\177\032\337?\311u+\201\200\233\355?hpqgvC\340?JP(\013_\222\323?\306\020 :\330\236\324?D\204\350\3637\272\355?X/\320\332F.\352?(\330\322\374b\277\350?\231\260\2704\302q\355?ll\247\260\262\336\314?8H\201\t\016\334\335?\247M\367\217\257U\354?\341z\240\317\262\300\351?S\334\251\231]\230\350?\364L\253\232\346\323\346?N|\327+\016U\357?lG\354#R\036\334?\227\r\005\236\000\252\352?@8\017G\221\355\224?\324\316\204\2745\304\315?\254V\327\242\035\270\302?-oI\376\355 \346?\237\271vRy\236\353?\200nj8\312=\266?\250Jv\362\314@\264?\200\250\323T\324\320\246?\326^\341!\032k\335?\034p\014L\\\026\307?\001\357\245\324\177S\340?\277\234\255\276kY\342?\032\260\252d\311\345\355?v\231P}\335\271\326?\333\024\370\0212\377\353?\260*\313\251\0028\356?\006\370S\235\333\236\342?5\001\210+\332\333\351?U \314\206\244\025\341?\270\366S\017\200L\270?\220B\232l\033C\336?f\r\352\300_k\356?*\010Wj\224?\331?\207B]\202e\002\347?\364\277Q\337\005\226\310?\360I$\341\314\352\356?X@\301n\271\365\357?\240\322\220\367t\366\350?8\177\373\026k\244\327?\371)\313\205W\240\352?l\252\010\016>X\351?\214\032\376cE\240\301?\276o\253\3120\302\327?\374?\345\032\207s\336?\310\035\314\320<\300\356?\226\030d\305\"w\346?\271\217\226:\246\225\352?\354\024v\270\023O\313?\3728\214\253\251\227\324?\314\'\266\245\230[\345?V\345\037\204\356\t\320?6Q\307m\315y\335?m\014p\304\331~\344?\010K\277\274\243\234\347?t1\306(Zw\300?\342\243y\010\220\321\323?\370}\273\332\346p\316?UC\223\240\302\236\347?\250\354t\334H\240\321?\362<^\262\301\231\353?0d\215r\276\354\265?\302v\236OM\250\335?\326\025\253\355\245Q\354?\203;\013\t\351j\343?\200\2132\367(\371\357?\266XO\373O\343\345?f5\205\n\271n\355?@\357o\267\234P\244?\200\301\310y^$\347?\376\353m\2545a\347?}\306\005\334e.\357?\254\307\364\202D\360\357?!\030\261?\372\205\354?D\256\345\261\350\253\347?\377\211*\223\227\272\347?\270\250\031\207}\346\301?0~\377\310t\375\245?\354\013E\272A^\345?p<A\202e;\266?\305j\277\244\362\226\344?\005\203+!c\265\345?\357\264=L%^\341?a\325m\374\031\261\340?Q\365\210R\207e\353?\322\251\217\264\373\364\326?\350\242\035\177\'\211\261?\230\362fe\021\206\316?\250W\203\202p\242\341?>\250\272\360o\357\326?\200\205\232\261\037a\246?^\037\226\250\370%\343?\2737Q\2059\251\340?\233\023\021-\344\371\357?\354\021i\252w\263\347?\216O\377[\001\203\351?1\227o\270\272\223\340?\234t\325Z\276\325\330?7h&g\327k\352?L\r\035\177\266\245\352?`&\355\266m\230\272?0\354\231\004\211\305\324?\216\303\373\345\327\352\342?\334\343\375\036X_\332?\334qx.CJ\336?\024\336\024\317\247\016\311?\360\2548*\003!\266?\340_[\240\270\344\350?\220X\375F\335e\335?\240F\000\201\222\203\254?`\210\204\250\034W\221?\376\375\254\377\366\207\350?\316RL\247\230\223\325?\334\274\333\315\357Q\313?\372\013\261C\361\234\342?\201\314l\207\026\001\347?LcIA\310\n\325?\336M)+\224h\324?\325|\232FJ\330\343?\274\267[2\344\310\347?8X\357\213\272\036\317?\310\345_\025\307\230\345?\264\245\313K\237\321\345?\304\326n\010{\346\326?T8<\245\331\315\301?N\010\344\304\204z\322?~\360\331\245\301[\327?H\305\277\357\353\026\302?\300)\rn+h\316?\014z\013\014\322.\321?@c\366Dxz\315?\210\372\244\376v\332\265?\344\227\305e\367G\356?\200\020Z&\034\257\332?\254w\035\306\200\232\307?T\353\315\334\030\002\335?\224G\226e\226\256\334?t\254\tj^\317\316?\323w\272\002\272\006\352?\346e\354sN\313\321?\276x,w\301B\347?\232[\371\237$\370\352?`!z\313EZ\307?\032\300\221Lz[\337?\260Ows\251\005\331?\032\002\240\"\356\312\346?Z\177\233N\234\006\337?E\230S{*\357\352?\372\005U\"\253-\343?tKE\362\244\030\332?0\275?y\324I\312? \302\033\262\314*\314?\247\025\247<\263\345\346?\222\212\026\005z\336\345?k]tB\242r\354?\035L\016\023Z?\345?\226\370\246\360\246\002\342?R\010\257\341\017b\350?<An\200\037\025\353?\000\365i\236F\257\356?@\254\255\320Z\025\351?\214\325\357\031U\320\354?t\370\377;l\204\342?\373\374KT*\202\350?k3`\177\241p\346?@\334\253?L\321\261?,\3142J\356!\324?\310\370Z\032\362\030\325?\006-\3211n\333\356? \334\037ahr\313?\000\300\320g\367}\277?\017\2471\025\321\317\350?\364n\301#\2705\322?\220U8c\352\307\325?\330x\'\321\377\345\260?@\"G\215\236\320\320?\245\323v69\207\354?\3600:\\:6\345?P\2315p5\276\321?\242%\362U\335\326\347?b\326tA\217\321\345?\304\324}xWB\304?\202\341[4\005\177\357?\344\021\004\234\354\236\340?x\314\020\t\023<\261?\340\325\215\316&4\271?\356\215\364R\025\216\357?\210\007\230 \241C\332?\330\366l\361P\211\331?\212\010\031\333\ng\340?B\"\2275\245\030\323?6\001\207z\214Q\345?\253K\005\034\366\000\344?bix\010\217\277\321?\314\262>z\002\345\305?\350\346\305{/\\\315?|\r\346i\336\206\324?g\267\253j][\345?\237=F\211\276b\356?O\205\306\360\210!\341?\224q\025\333\212\327\305?\336c\2404\245\030\340?\242jc\010j\352\322?\222\276\315\377\300\347\347?\366v\364a\206N\347?4x\215\271\304\247\336?\340?\240K\r\230\260?\2466\'k\222b\345?\340U\007\227`K\303?\2121\200Zvk\330?<F\343\242,^\347?h\243\270Gl\273\264?\026\316\364\340(\013\325?\304\026\335S\307\223\311?\007\323&(\241\241\345?\246\315\372\321x\353\326?\200\311\325fq\333\247?\"\352;+\257y\344?`\262\352\354fF\240?\225[\341\221\266w\342?\252\311%\212\'E\321?\377>\022A\363\356\341?\342i2\035+R\322?\207/\315;o>\351?\000\342\371\014C\230\231?\274x\312\276\225[\312?HK[\371\241\030\265?8\3551\010\210;\330?\255\223\032fi\266\343?@4\000\266\037\311\302?\340o+\256\214\000\320?\2721\356w\333\000\325?\024\331\000\303\377\204\306?x\036\206\0225\243\323?\334\306\214\\\351\213\331?\350\\#\225\342D\343?d\376\002}i\002\331?D\201\331\251\2535\325?\320\002\356\365#\360\241?\263\010\006#Ur\356?\216\332,\344\332\312\322?d\314\030\245\242\217\343?\257\310\"\213\252\346\354?\260W\240\312\010\317\272?\370\217\3126N\t\330?\027\211\277\313\031\343\346?`\210\256\003\225\254\276?\351\344Q\200\224\266\355?\335\244e\344\305\036\347?\344\316o{6@\350?\340;\200+\336\211\327?]tn\253\234M\344?o*\234\361\242\361\353?\024@\030s\317J\307?\235\322\272\273\353t\347?\230(\002\032\323\232\325?\212\377\026\243\275\340\347?\220S\373\343\026\014\271?\250\204)L\202\374\346?\3601\233<?\341\356?[\210\202\3459\245\354?k\231\237c\243\213\351?\236\350\231b\244*\336?\336\204\300\n\252\201\333?\370\365\225Y\010\021\333?z^=N\243\036\355?\030\326\207\003x\253\337? \325W\220\003\265\307?\317S\305\226\335F\351?g\352;MRB\350?\364\003\231|fy\343?N\013l\340\365\'\337?\356\377NC\213;\324?b\313\353h\346@\343?\3307\006vc:\332?{kS+\000\312\350? \333\236\247\323E\251?\254\305\230k\332\023\301?\223\263\224\364vS\343?h\263m\007r7\327?\307\316\231\0057\267\342?0\263\364g\300|\240?Wa\344#\\\357\342?j\351\226\371]\333\333?\222\304\n\3432\374\337?\251\220\312\250S\303\356?\240\221BD\350=\350?X\025O\0376\'\265?\202\277\355\n@\250\344?b\033\323Dz\317\336?\312Y\310\213\034&\354?\213\302{>\347\027\347?\261I\210\014A\265\356?`\312\324\206\222\370\230?\021>\3653\331T\343?\200\031\024xbf\234? \263\255\257\337 \351?\210\214\376\221\2748\337?:\200\233\021>\204\330?@\020w\035\211\205\223?\326\224\n7\220\236\327?f\236\377\340\334,\343?\211\355w\033\350W\341?\235\213\243\242\242\312\350?\016\254\234p= \331?\000\275X\272\030\235\245?\214\224\201g\342\365\322?pW\302B\250\315\353?\330\027@&\347\035\352?$\272\267\321_l\353?\336\341\312\035\323\251\337?Y~\202\331\266\360\346?\260\200\360r\265\365\325?\236\304\323\205\200y\352?B\005}ot\300\350?\203\010\332n\272Z\355?f\322\271\'?\005\344?\347\007l&\342\341\346?\024R\030\253\345\021\307?\0008\266*\\\364K?\3126\306\333\036\020\330? \345\302\351\003\244\245?\206\260k\031\267\306\350?\252\177\214\227\350\024\326?\232iq\343\026Y\346?yfVC\000\373\355?5\024\202g\313\255\354?\324\031!\014\245y\311?N\311\212z\022\274\335?$t\351:4\337\327?M\207\017\345)\205\346?&\250\222\r:\277\320?\323R\366u\331\326\351?\350\024\204\272\343\222\261?\nV\345\025\003K\343?LJ\247\213\275\000\306? \276\233\364\230\022\320?&!\017\320\303*\345?\200\343\221\014\\#\305?^\241\361\356`\032\320?v\315xu\030\355\354?\000\374\314o,H\276?<\252\032@KM\300?X{\031\243o\301\321?~\0225k\374F\352?\034\0165TZ\370\346?\352\253\205\352\306\207\324?>\365\377\227\303^\347?8ou\375\005\324\326?x\336\317\374\203\266\341?\220\260\221\2545\304\257?\'\034/z\207q\356?x\267\253\\\034\232\315?G\367\325s\"(\357?\001\256\005\217!\233\353?(\031-X\302\000\351?0\351D\235=\355\260?\200\354\263\273[D\252?\017\202\356\214\366\207\350?\220\364\231R\020\000\310?H^\363|\024\207\322?\334\035\264V\205\374\313?#\225\267\373X\231\357?0\376G\242\231T\313?\032~\211(\211\272\354?4c\322\343^\362\331?\014<^\272\022.\341?X`/U\323(\326?\254zh\033A\270\357?\010\314\rN\016\364\343?h\260\245\315\246\351\274?\021\277\247\241-2\340?b\217>\2063M\332?\320\350\001\200#\213\263?\336\373\031h\363\240\357?\344\206\241\"]\227\321?\034l\263Z%\331\312?h@\274\3002?\351?\310\000\343SXZ\344?\221O\323l\2512\355?\235\340E\026\274*\355?\221\322u<\315\240\346?\234\3176H\271\024\327?0\302\317\214FJ\336?\310b\301\251\370#\276?\240\247\277G\032~\252?\374\302\233B9D\304?\370!\322\305i=\353?\236\216\364\326 I\347?pQ\360ti\220\254?\006\250\336\224WT\350?\322\362\366\n\237\376\351?\264}\260{Us\321?\240b\272y\'\301\313?|\276\373\331\2123\336?z\377\215\233jv\337?\006\345\303\256G\035\342?H\360u\331l\024\352?@\332\\\002\276\342\260?u\013\202\n2B\340?\246\003J\231\022\211\337?$v\371\3376\300\326?\327I1\317/m\351?\340-\361\277_k\336?\031\305\371\222\333\314\355?\244-\370:=\210\310?_>\273\356\271\021\354?\366\240\355Z`\336\321?\034\324A\010m\n\326?&\260\313\326GS\357?\020\273>~\365\270\241?\\\312v\221\275\325\335?\3069\346\255\3674\344?\373w\213\370\032\'\354?\215\002x\226\237K\342?\274\t\216FX\275\335?\304$C\010K\324\356?n\243\327i!\356\322?\034\373(\251\332l\313?\240\260\t\026\302\252\300?\212\274(\222bq\325?\330`\222.w0\314?(xG3\244k\262?\360\006\211?\227j\273?\260\370\016\320\2642\302?\214H\274\251\320\207\317?`\265\213P\371\235\303?.\3216\315h\260\323?J\310\324s\273\344\342?\002\215\245\003\003z\354?\224\272\347\221\006\271\344?cF\037\233\335\265\347?h7\266\240i\350\312?nr\206Gt\'\353?KG\225\325\305\222\346?\037\250\265\203h\267\354?\037\300\377\203\312*\355?t{\254i]\375\333?\024\0300\231\371\260\352?[\324\031\360H_\352?\304[\375\200\353\246\334?\355\340\213\321\264Q\351?\250\311W\020\223{\355?\010\317\352\332\272\272\344?k\223\262\377o\006\353?\310$s\021\375c\304?\210\261\"\324\211\265\324?\207qO\327\370\202\355?H\005\226\357\373\321\330?\034\231/\277)j\354?*\264>\320$g\321?`\222\245qd\031\234?qEr:\312i\340?\000\301e;\277\006e?\326\201\312\374\r\207\334?\203/\000\225P\313\350?\020\376\006\014,\210\251?i\350%.\371?\352?6\354\177\263D\231\325?\373\313\377a1\\\346?9\020\235b\210=\343?Z\254\234q@Q\333?D{\212nZ\r\306?\306\206\350\332\351\316\330?\260\327D\3031\305\275?\350e\306\314\316\246\327?\220\330:\334\316\353\307?\322\304l3#\213\345?Fu\353\215\361S\330?\354%\311\232)\260\302?\214\341@$\001\370\341?\354\302gI\014\356\316?\220/\"\375\210\377\302?\260\217\177H\356\326\330?\370E@\2601\247\275?\031\017\302\371\257?\356?dA/:\201\325\350?\373\227\200\323#\235\351?Y4{\217\313\210\352?\024\242\\\377\326\242\310?@)\367t\302m\237?\336\354^\352\'\266\353?\\\334\307\307\371{\335?\026a\336\364\007\340\320?Llu5\332[\324?zJ\276\241\271\266\355?l\300)\262\357\215\312?\351\002\366\361\321\277\344?@5\224\035\217\210\354?\375\214v\236\260\201\355?\"\243\3062\274\204\333?@\235\270Z\304]\350?\233sD>1\210\355?~\326\252\033D\000\351?\334\272\272_Q\203\335?H\"\373\'8\267\345?\222wL$\212\324\357?\354C\210\027\215\031\317?H\262{\351-\234\344?\214\346\036f\0249\322?\266R\023\222/A\326?h?{\200D\\\330?\262B\"\017\232,\323?.\351,\307\003a\346?\226\022\335G\246E\325?j\004\331\257\3400\337?\300\212\304h\2003\311?9(F\371R<\341?\360\302\\}\301)\355?_\213\244d*\375\340?\224\267|\216\037\221\322?\244\245\252\206\345g\300?\200T\025\376\222l\313?\354\256+\314d`\354?\314pH\243\251z\316?S\337/\206\340\247\343?\024O\303\210\301\310\302?\264\362%O\377\220\350?8\250t\276+\256\317?T5\334\024\264\021\303?\376\256\352\303\264\036\333?\010\211\311TMF\342?\0178\343\007\274u\342?\261\014\357\354\252\223\340?\000\275)w\314\006\257?}\220\355\371\025\317\353?\3507\256\213AL\277?\014)&\216\235G\320?!\316@\023\275\022\344?;\305\272U\233;\356?*sB4A\372\336?\217\231\026\301\256%\354?\360\3679n\322;\246?H|`\365\364J\266?lg\255\272\345\263\320?\210\007\276#\225\246\356?\235\360\n\377=t\344?1\2334\034\000\353\354?\344\352c\343,\214\334?J\245\340\376\227j\357?(6C^\273\205\347?\244#\257\304\267\013\350?\004\212\225s\037\214\320?@\376\0304\2273\202?B\323\302\252\230#\356?\354\250\250\324\204\301\323?\260(\337\022\247\313\326?,\030\254\261\000\347\353?\243I\201\034:G\352?\014|\030q@\037\356?\014\301\267\373\033R\346?\005p\013\323r\017\347?\220\347\034\246\257\234\321?\3646\302\222_k\310?\274~%\305G\001\321?\n9U\370([\331?D2\2346\022w\307?!\224\000\350\277\372\340?Rv\221\241\006\264\325?\276\334\017Vg\023\332?\006\2229\355B\\\322?\255s=\367\335\024\342?\257\312\3361@\302\342?\374\217\226\260-\201\327?\336\250\026$^\227\356?^\035{\276I[\353?\225\273P&$R\346?u\020p\273s\264\353?@\266\036#\245\033\260?\256\253\310??\222\335?\2133\006h\252\201\357?\336,=\226\3276\343?\200\004\301\314W\265\200?x\313mJC\007\276?Y(\227\r\005b\352?\306\325S\370\027\023\327?Ck\352\037\226\307\341?\344\323\212\035\252e\324?\0160\022WK\305\357?g\260\217\003\0236\341?\246Us\341H{\342?\013\310d\277\021L\343?L\211\336\021\352\245\311?\t\316\213\204\231\007\344?\374l\347\360\206J\303?\371U\020\276\320d\356?\234!\373A\004\306\355?\245\345}\035]@\352?^\362\324\342\200\330\324?\2722\265ye\227\353?\226\375\361\221(\001\346?\2402\272\035\354\337\246?Hk\222\350\377\306\337?\034\270J>\2433\352?T\214\002_\364\343\321?6\352\001\372\305d\342?\0225\270\204e\027\344?\264w\334\335D\277\342?\204\227\365\326\022\377\347?\212\205\371~\271u\322?X\364\354\375\346\n\351?\026\307\361wFA\345?]\3513?\016\271\351?\254\016\355\361=\345\352?N\364\225\016\257y\335?\330\225\277C\366\363\271?w\351u(\323\372\355?\220\212{ \000/\351?3\337\330\350\201\274\342?#\340&\014J-\345?p~\312*\023\320\324?r\236\314L\t\335\337? \311\276\315\n^\274?r#\300\372G:\340?\200\357\031\202\027\247\256?{\320\373\222\276\365\346?s\276\030\210\204\305\356?j|5\340\245\356\346?\360q\256\303\361=\340?|dE\202N\203\357?\322\017m\027a~\333?\032\263\363\314t\210\350?aG\364\304\203\204\342?\230\263P\266\352\014\306?:\220\244\033\246>\325?>W=\273b\307\354?N\352\211\022\260\236\355?\252Gn%\037n\357?\326>X\303\252P\343?\260)}\024<\210\310?\000\240\301d\030\322\311?\321\333S\021*7\343?Kxb4\262\021\356?\004\344\001\256\361X\314?\221\225I\323\r>\342?F\020]\332 \030\350?_HAz\025\260\343?\270\202\365\217\335\375\321?\200\r(d\007\330\241?2\356S\256\361\307\345?\25117\350\267\247\354?\024U\203\253f\272\352?\213\331\3118\301\361\350?@\325\336#1\345\330?A\336\302 \311\232\351?\027\344\222`\340\232\344?\371Mh\323\035p\356?\250+Y\322VJ\345?\262<\033}uE\335?mu\013\005Qg\340?\204\254+!M)\332?\320_\036\270\005\344\261?4\303\375B\036\264\304?\330\325\020\255?\260\357?4-\302\363^\314\304?\300Q\263\317\200\325\316?\312\234\006\006\274$\333?\234\020\310\367\207\246\304?\201\253\311\016_E\352?\210\177\026\004\216\204\352?:\367\352\233\310^\334?$\n\224\362\232\r\357?D\376B-\344\024\345?z\033\245\016\376/\357?\220+\207\335\310\230\316?\007Emz\277\216\354?\333\302\rL_\342\350?\2609UyOi\257?\230\257\320\340\376\243\263?3B\200\033s\000\353?\376\220\345\342\331=\345?\210\310x\371\010\375\260?\312\034\253\273\267\002\326?\0259\203K\275W\355?h/\020\213D+\267?\320\373L\203\203\022\352?\220Lx\333\037\361\253?\001ohG=\235\344?\311)\336\3161\221\353?Y!\203\232\361\234\344?\032\010n\316C\037\335?r\343\007\322j\321\344?Z7\311\021\323\263\352?r\223\274\003O\022\346?x\022\206YA6\267?\000\205w{\241;\311? \264\323\224\206i\234?\361\376~R\363v\344?\366\026\253\225\305\366\351?\320\224\245vX\273\344?\3145iKf\306\345?\212\374\214\250xs\322?D)H\361\2524\316?\025w?\314\030\024\345?\320\250]\225.4\324?\244\264\363\365u\023\332?i\336RwsX\347?\370#\213\333=\320\303?\310\000h:H\311\343?$\312\204\336\016\221\320?h\325J\350\365\221\347?Hc\244c,v\326?\330\\<\304t\303\356?`AS_\035\211\241?@\2526{>\014\266?!\235=\0038\261\344?\2342U\367/\272\357?\364\233w2\337\323\332?\340Cb\306i\266\337?\266<_\016\217\305\333?\352\317\n/\305\237\346?\010\\\2235\323\350\265?\276\360\326\343EL\322?\350\3441\264:e\307?S\215\215\330\'\177\340?\260\t\371\376\275\267\311?\230\031W\262s~\275?\200n\213G1j\231?\\\331\372_g\255\332?\300&s\3441s\231?\250\326i\312/\213\324?\320\326\201o\214S\320?~VC.T\275\350?\024\300\253Y\271\257\302?l\247q|\365\244\350?p\336\023\225Z\240\251?\002\335\034\361\206.\337?f\304\251\360\332j\341?\367g\370\263\357\352\357?\3600V\025\353\220\340?\024\247\357\327F#\331?\364\341\342\315\315\357\315?2\003w\303\010\257\356?\217^R\227He\352?\323\241w\272\3644\357?\014)\343\315\033\022\315?\231\004\255\204\017X\341?\374/9\024\227(\351?\2307Bt\352\005\331?\262!\334\335\372\326\350?J\250\320\334=B\355?\3233v\346L{\357?\273}8\263+\233\344?P\023\336\232\034\025\277?\006-\004\335\364\304\351?T~\363<=\236\324?Dc\332\227 \323\300?\004*<\035\034\220\327?\354M\233\r\327\344\334?D~\004\262\357\031\305?\340\301\020p\235=\256?\0060\2554^\027\336? J\326\331\337\037\345?\370V/\206I\337\336?1\232\345#\230\014\353?\376\330\367\351\257\301\334?\350\\\341\013\361\236\353?\344\223`\250\213\205\313?0\235\350\303\327\"\326?N\032\036\263kf\324?\320\210\367\214Nt\314?\021\316_\304\311{\357?\014^1\207\276\252\344?\210\t\224\367\344{\302?\360Nd\004\020\227\344?N\345\331\004\346\177\343?\334\217eb\235\215\303?N\217\177\334\024\275\344?\026\201\035\014\036\313\351?d\317\014g\342)\344?\260\246d\321\340\351\340?\036\223(\362\271E\325?j\250h\216\020\366\351?:\257\245R\213\252\355?\230\271\325SD>\340?\216\326\271eo\210\342?r#V\302\024u\323?\345\215\324\231[\210\342?\004G\222ci\030\312?\'#\017\244\231\030\357?\374a\257\251\213\222\350?\375\263\\ \263]\342?%xU\006\371`\351?8v\237S\t\323\307?\320\222P_\301\343\254?\316\301\025+\007\227\350?~G\377\240\307\315\330?\314\246#JL\374\357?\204\036\364\264\206\204\333?\375\014\367Z}_\342?\360\332\272\034\265\256\330?\330\265\342l\305\227\341?\272\2449\222\026A\355?\271\330\337Z8\322\344?\306\200\"\tg[\327?lH\227\270\\\350\353?K\306M:fg\345?v!\233dG\260\351?\022\237\314\346`\213\325?\252\237\234\017\243\325\327?\364\210\232\356S\014\344?f\211Z\216\013\376\325?\036\270\037\325\354*\321?\252`\034\323w\365\325?t\021o\3660U\332?,p\034o\375\263\312?`\344\212\205\342n\264?\307\202\216\204\201\206\344?\276\320\017\362\2010\341?89\307K\266\025\261?\334\350\302l72\353?\210\307\030\314\245F\357?\200\022\335\304\340g\254?P\361\344(\237\017\337?\214\366MH\274\241\347?lv\233$\312\364\330?f\223\243\352\3351\352?`\366^K\372\302\340?\352.\177X\335=\332?X<\240\263\244\266\271?\371D\020\306.\311\356?\230%\204\0134\366\317?\210\213\355u@\336\304?\360\315\354?\342P\335?Lb1\371-\213\346?\353m\232\327\256\255\340?\333R\002\210c\236\354?`\275\300\327\035\231\246?b;\246?\335\371\350?\027\255C)l\330\341?\027\346\t\000\360\376\346?\022\353}\2127\376\352?\360\001213m\325?\310\242\260IS\265\357?@\367\335\262\275>\307?T\233\026\333\222\211\331?\3126d9\241\314\322?\314\031\374\314\356n\350?Tx\354\241\304\276\332?\241\214Y\317\302\272\341?G\311u\021\257\247\351?H\207V}\307\266\343?\377PB^\212\356\355?@\337\004\342\203\263\220?\374\007\271\226\325@\304?rUmt\202k\334?\363Ox.L;\341?\353(}\260\005J\341?\252;\256#\3065\321?\002\246\2151\255\221\352?\342\353\370\305\002\345\325?;\177\212\302w7\344?.\231\265\211;\260\330?\240S@Gu\245\261?\'\356\036J\266\007\343?\006\365\224\266\305\216\341?}\327R/F\341\353?\342\277\330\250\204\t\341?\\\223\347\243\270\021\344?\024\016v\362\314Q\345?\017X#\363<=\350?\341\246\230~\006\325\345?\263\017\000U-\251\347?\220\010\274\2207\002\354?x4\251$\272_\260?\366d\271\273\246I\324?\350\360\000\317\272\211\261?\226\351@6\377{\341?\217\322p\265 A\342?\016\347\004\252S\014\322?\236\205\360\013\030\245\333?\242B@[\020%\341?&$\362\227\201\342\333?j\262\340\325\277\337\355?`)\263D\367\206\316?6\276:\305\177\004\351?\316\033\246\324Vj\331?\017\002\301g\231E\340?z\330Y\014\236_\351?&\343\373\377\344*\330?\334\010\212\343\205\211\311?\204\205QV\361B\317?@(\"\023et\257?\304\306\350\234\355h\353?\324\265Z\037\255\257\342?\214k@;p\336\310?\320\251)\253xH\270?\365\004\272Z\023\236\357?<\347o.\375\200\330?\324\320\301\\\323\272\307?\332\255\260M\267\r\341?\366\333\237\003\275\321\321?\"\311\350\035\310~\334?t\232\006\314\036w\346?\303\013n\017.\246\350?\266TtI\317\267\322?\210\234@\004\321\016\301?\032u\327\003,\017\347?\337y\314\032\326r\344?\375r\'\237Y\326\356?\362\003$)2\215\341?h\362\360\210\322\002\343?@ \003\ro\240\357?\000\237\251v\354\024\272?^\000\232!u(\344?\030\355\264\0270e\335?\332}\320,8\302\356?k\300:\205{\231\354?\355\016\301\354\276*\340?\313\200\016\212\230\010\353?\200\004H\243\024\224\177?\222\366\224\263\247\202\343?\006/~\253\336\\\336?X\252K\362~\206\355?\270> \302v\354\314?\3607&\223\'\321\306?.\037@);\367\325?\205\256X\350{\277\357?\212:\237\327\\\344\345?\253[\006%\033|\345?\202g\n\3646W\341?\356\356\245n\242\321\335?\316En9\305\232\327?\302c\371\362\032\333\346?\264\211\017\336m\243\311?\244~+\332\266q\305?i\024\210\231\313\214\356?\240#\330\276tw\240?\302\344\230\323@\345\337?\302|\013~B\305\347?\216\354N|\364E\324?\210\341~\3615\t\305?\002q\033\226\344c\334?V+\246\325f\334\341?\313\001,\257\314D\342?\274|\363\251D8\331?\t\020\022G\2520\352?L/K7\035\021\326?ea\007I\213!\353?\260;\372:\232o\330?\252f\022\014\313\307\345?$a\\\377j\010\334?@\273\005\337\017P\342?\276\030\217Y\356\376\331?\020c\270\017\237\232\261?+\320\356\021\333\027\357?\026\370\177@S\242\352?\210\234\312\363u\272\346?N\315\233g|1\336?\314]\307\232J\265\305?\220\023\235\210-T\273?\300M\240\305\016\277\301?@\236\326L\024V\345?\240\212rj\204\222\356?\312i\314\3237\213\347?d:\264\203\327N\305?\307>\321\307f\336\347?\300\243O\347\346V\311? \026F\257\202X\310?Hn\305}\021#\346?X\255\034\2578\350\336?<Wg\335\233J\314?\030\360P\313\202|\312?\030\246#`\362\202\264?\370m\216\367Uv\330?\340M\344\314\213\310\314?\206a@A\244!\323?\032\243H{\375\337\332?\356\203\366\271\241.\342?\024\203\354\367y\206\320?q\rI\217\367\202\342?\256\315\n\261\014\303\350?v\246P\271\313\207\356?\312\217\023\312&\205\346?\000\362\354\023\363%\203?\316\001\010C^\211\344?\266\033s\334\207\005\330?ay\262\215\247\355\356?\310H\240\200\301h\340?0k\216\376\2656\252?|>V\340m2\334?#gc\351e\257\346?\265\2074\212 \357\352?Vl-\023x\033\347?\t\226?\326\216\213\352?\360_\344\2629\370\321?\370N_\004\233\023\331?\022\2533.F+\330?\272\233\323\277\255\220\336?\252\266V7\332_\330?\3502\274#\000;\333?\240\026J\023b\260\273?\253\241-\313\255\001\352?\245\'[\237\274+\342?aL\'\256U\216\357?N\367\360\241\235\277\330?\r\257>\032\270\363\357?\370\325<\377\334\267\267?:\007y\331\370t\353?\3044M\373\341\240\351?\"@0\006A\266\333?Z\220&P\3126\343?d\205\020\347\300\276\324?\274\361\246|\3369\302?%\355\367\315I\360\351?\274\356\311\256\022\313\354?`\336\243B\312\245\231?8.-7\344\235\330?\270\344\353Qan\266?H\302\276w#?\357?\235\337\006\271\036\354\343?\033\332?\027a\244\355?\207/\345S\336m\347?\230^\307\003\\G\306?<o\303\321\021\221\315?b\347\347\327\006\374\323?\313\326\035j\016\260\340?\007(\036\211\375\021\352? \3316\374h\302\352?\000\327\375?\201\344\205?6\231x\371z\364\351?\225\317\022`\372\037\346?\000v)\261\346G{?\370u(.\202\003\306?\030<b\273\3219\355?\2308L\2135\347\343?\010\017\206\302N\235\347?\016\004h-&=\351?5\036\363\"\263.\357?\336&\204\302\0365\351?n\013\003<\2206\346?\374\375\266+\0256\312?-\301Un\373\235\353?\010gF\270s\365\272?\252\323\262\250\344\214\327?\034A\245\336\021\020\325?\352\227\0371\322\342\331?\240\354]\250\346\021\233?z\2017\013l\375\355?\200\237g\177\231L\226?@\262\026U\206=\337?\200\265\026\366\317O\322?\214\355\233\275N\356\351?\000fC\177\231\035\316?zb\256\306t\004\352?H`\334\273\3414\303?\330\312rl\251[\315?X\313\033p\267\036\330?\216*j\370\363\343\324?\t>\320\312\010s\344?\312\277>K\302`\344?\036\254\213\223i=\331?\010a\025\315qn\325?\340\004=\306w\247\250?\310-6\362z]\270?\221\364\212\241\030#\350?\362\027eB}f\335?x\205\341(\250g\260?\250\320\026\024\207A\262?\316N\305\276p\214\327?Jl4\026\320\016\357?P\223\027\306\204\037\343?\030\177\305\261\342\211\321?\350\262lm\247\013\274?\254+);\335\300\333?&\212\243\301\323H\357?\022\356\261\364\301[\332?\302\017xi=\030\344?\225\274\212\352\270\375\343?B\206!{\356/\336?\377\363\357\027}\226\352?\301\333\235^\207\003\343?[q\203\234\346z\342?\250\224\357E\215\215\327?\212V\201\347 \261\330?jh>B\335\010\343?\350\013\264\2165\037\337?\204vj#V\216\343?#\2509\331a\351\353?8\216N\025\002\"\341?H\234z>\3232\276?\337?\211#\207\270\352?\2305(\377:\363\332?XC\232\363\342\233\333?\327H\022\366/Q\342?\016\315\341Y.A\357?\312\252\000\022y\321\320?\036!P\205F\026\355?\000\215\213ilz\301?\343 M\262\271A\354?\357\243j!O\037\351?\2007:\343\3271\346?\200\213\241\326\264\252\342?\206>\254\377\300\345\350?\034\305\255\005\2618\327?\340z\0170\013\246\334?\220|6\344t\036\251?\221\024FLc8\346?a\265\334\213\200u\346?\240\363\354W\241\307\307?\215\237\235!,\"\347?Cx\365\2618\310\351?\250\371\256\212\222\014\350?\210\344(\203g\020\324?L{\343\033j\217\347?\243H\351yy\212\354?\026\305\360\265\363\257\323?5\365$\033\346o\344?\010\256\315R\374\243\343? 8\227F\002<\325?d{S\221\233C\341?\264\233\354\037%\324\354?*~\3600\236\037\343?\306\2439\356w\225\354?\322\016\214\312\272G\355?X0\262\256\244\265\334?\200\330Q\0177\210\260? \240:\335\010\205\237?\340\223x\236\343)\310?i\1778\033\220\033\351?6E\217\265\376\237\357?\252\\\230\361\276C\345?\276t\364T\0305\336?:t;\020\002.\320?\002!\347\240\334\007\342?v\022\234R\264\030\333?\304\3307\016\251U\352?\227(\214D\274\217\342?\340\356\232\3325\024\253?\214E\243\320\344|\327?\354\211\355`G\257\306?hH\320\224F\231\264?\376\240FQ\317L\353?\233\2169\302j\036\344?\r-\262e\256\314\351?/\327\032J\024\222\345?x\342\352\375<\006\266?L\251\275\004\324J\355?c\334\335zU\350\346?\345\347\204\1774^\342?z\206U\204h+\355?^\033\346<\303\n\346?\337b\363$f\331\340?7\215\022\241\227\203\341?\306t\204\374rZ\357?E\336\234\360\3428\343?Zf{~j1\343?$\017\351\374Vs\347?\360\310\364n\271K\331?&\343\000\335\205\331\351?\340\361\375\347L6\320?\032z\235 Zu\355?+\330{4\364\306\351?7Vc\000\321\004\355?\204\226\225\254\177\313\332?\000\200\032\261\"\310\267?6\003\240\363\305Y\333?l\013\304\370(C\352?x\004\374nj\332\300?\350\312\344\332\013\024\341?v\244\254\237\3625\322?\355\320c\036s\234\345?%\251\035\300q\237\356?\214\212j\237&\332\313?(\255O\213\343;\332?\3520\204\232\236\\\330?\250\226\024\313\177\345\306? \341}\2064\201\254?\347\236\355\307\353\250\342?\000U\213I\272\356\316?\020\003\326\270\031P\304?\032\251e\0369Z\322?\034\200\367\303\312+\326?0&\017\010\023w\246?\340\347\372\243\031\032\355?\260\014i\305\341\266\331?\334C\234\001\232\"\301?p\326\007q\347\250\244?3XEY\302c\351?\336\257 \017$\360\347?\204\331\032\306\321,\345?\342-6PtE\326?\325\260s[\367\353\344?\222\r\255v\214\035\344?\020\256\303\242d\364\246?\350\"\271\204\266\005\341?\n\003\277\342&\261\353?\340?\373\377M\342\353?(\375\313^\254:\272?\334\353D(f9\304?]\320Z\337\007\347\355?O/\214\336\231\346\350?\362\204Y\3178\355\325?+\276\355\215\006\227\355?\331\362\343%\026\036\353?\003;\276Rv\030\357?\245\177\277\202\240\255\341?\304\233\024\242a\322\333?\212\\\377\270P\263\323?\007\270\263B]\212\346?\335\272<\357\271d\340?H\257\022\260\376\014\313?\227\2242\256a\211\340?j#\252\220\267\347\354?\004\357r\2479/\326?\005j\370\311G\304\343?\\\233;\217Rj\352?\014\330^\"2\227\352?e\316\273\224\032\017\341?\324\362\345\210\352^\323?~\006-<au\336?4\363\342\321ha\314?\260!e$#\353\265?d$\232\305\017>\321?\360d\030$Ld\332?\351\340\275\362\0053\351?\024\215\234\273\nu\353?\'\346\014\277(\350\341?8Y\342\312\303\317\341?P\326\343\216\241.\310?r\376\326\213\177(\345?\200\311\253/\372\332\251?\341\035\310#\315\347\354?s5\201v\2135\344?\220\322\357B\302b\311?\035w\311\275q\271\347?\354\276\247L>\244\355?\344\243\207\303y\247\352?%\006\360\306\004\230\352?F\3573\216\373\264\322?\240\025\205\231p\212\252?\351\226\267P\"N\342?n?\272)\230\336\357?\346l\275\020\340\211\344?\000\363\021\026\026zl?\024H\021\227\366A\303?\030\336\240K\262\"\300?\340\260t\343x\255\275?\312\001\\\313\362h\325?=L\037\352\237\221\350?\212\3136|\320\226\343?\236\215\034\020f\257\335?\340I7,B\365\320?Z;\261\230=F\331?PZsr\333\313\306?\374\202\270\267?\340\316?N\022{@\372\355\327?\002\3249\201N\276\350?\246ZZ\242Z\241\352?ln\360\232&\342\334?\270\351\266\355\270\"\265?p\210\340\340\312\034\351?e\273\200J4E\341?\310\204\241k\003\023\302?\'\344\306[\\\257\356?\350\241\rc\002\366\320?\227d\004K\321 \352?@Yp\370\234\356\237?\006\344\311\313\271\377\351?\226\200;\255t\307\334?\257\242\017\272x\032\345?~=\346\322\024\034\326?\320o\324L)\247\273??V\311*H\327\342?\360\372~\266v\265\253?h#P\003\252;\310?\344i1j\003\276\336?\270\217I5\221\255\323?\\\216\327p\340\212\344?\033\223x\323R\377\356?\014\027\t\327\311\263\304?P\n$\344Y0\355?\007yT\233zI\354?.:\245\"\007\000\353?`\225\210\326\003\253\337?\306\221\300.\326B\350?\204:Xue\257\347?\007\030\307R\316\352\342?\270\237\323\345\334\221\325?(#\221\304Vb\301?\362\226\007\273O \322?\340\3400H=j\351?\212!.\317\000\276\340?\312\031\222\314\355\330\321?\021\230\371\240\205\324\341?\337B\214\367\264\210\357?\222Z1P,\263\326?\270e+W\304\275\341?\241Q\361\321y9\345?\345+v\347 \'\353?|\356\255\356\344K\340?/\342lW\r|\341?\237\242\322\204\256I\351?\343\242L\025\000\302\357?\366\021\315\350%\320\324?=\\\033\336\2147\352?\212\361\254\'\255\030\341?\010\365JO1\253\337?\016g[:\336\245\350?\204S\230\007\335\304\335?\214\016D{\r\003\305?\350wY\362\277\315\337? \350O\362\220\267\225?X\305\351^\025~\324?@a\331\371\003\017\312?\307\311?\274%&\342?\002@]\027\300C\356?&[\226\026\307\313\351?,\261=\024P\277\334?t\017\3750\302\255\341?\'\353\257\355\2118\344?p\013\030\231c\200\320?S\310\007 \200\010\346?i\000c\205\241\342\356?\354\234\303\347K!\320?+\272\317\334\035\213\345?\014\210N\027g\365\334?C0\323\237\211M\352?>\344-;\322>\356?\2016+\200\220\314\344?PT\367p\333)\302?\250r\333\223\007\317\324?\006\026\307\260#\363\356?BlQ8\367\006\347?\305\230\346@\355\332\341?\230z\006\325\017O\302?i\250\204\'\350\265\345?p\177p\200K\325\276?X\367\371a\345\331\356?Q\354f\232\371\377\346?8\2566\0232\354\331?\204D\'\r\017:\350?\037H\375\030j\211\350?\300\007\252f#M\234?p \036\314\330\n\256?h\003\342)\206\275\322?\360\001\005302\324?\221\260\307\253\312\004\352?\315\242RT\204\353\352?\013\251\222\352\207\213\347?\204\213\272\370\357\177\326?|\276\310|G\374\310?\310\363\371\222\030\017\335?:\034h\"\316M\356?X \\\212d\014\327?\354\002\210\275;!\333?\31283\304\n`\323?\256\221=(\210Z\324?\356\210\271nVn\332?\270\364\3414\370-\275?\234\235!\347Q\221\345?\247\003\304X\277w\343?\000|D\324\305\211\272?U*\376?Q\334\353?D}pg\323~\353?\333\203\260\226\3440\346?b\334\270d\256A\342?\351\003[6\303l\355?T\3166\234\234\372\351?\236y\002Y_ \341?\037J\236\262?\264\353?\326\340\232\201\262\370\346?\274\277r\320\010\377\322?\000\3132l\000\013n? \333\340\224a\216\311?\276\300\223\246\346z\333?\000\004\311\332\001\316\234?\210\301\316\214u\316\327?\263,\262\005\235\360\343?\354\343\016}\007\344\341?\"\261\264\016\365\315\322?>-\003\2118N\350?T>\327\342\005\357\314?\207\366ot\275\244\347?\204[i\335\010\250\303?\252\230\254~\237^\356?\234;c\324\246\273\345?\034v\334\225Az\302?^\357$\235\365&\341?\222+\274\346(\246\353?\326\203\005\356@H\342?\034fD\355t*\303?\254\307\320\225L:\304?\200\345\257\227Ibx?\\\327t_\360\211\340?\336h\304P\2165\337?\214Uy-C3\303?\3646\331\"\213\245\334?\333d\204\032\370\377\340?!hC\372\201\265\342?\020\'\034\376\307c\247?\2677\204Ua!\347?\256\206QAp\031\352?\325\010L0(`\345?\264\247\312l\251\262\327?\374\022\'\234A\271\316?\266~\317\032\253\253\333?\265+\330\203\033\360\343?\200\321\270\331)\354\273?\000\013\026/@\323\254?\256\223\300\027\215\003\325?\370\022D\215Sz\260?\003cC9j\245\344?\222L\0175\037\346\327?0t;\306i\332\317?\233u\003\216$\010\340?(\326\324I\363\n\335?\314\335R4A\323\326? \'Vf\205$\354?\246Kc\010\225t\337?\244\037[\221P\026\321?\001\277`v\211\221\347?\300H\017\314\235\337\234?\306%at;0\342?\252\337\352\'\247=\352?P\270\246\371u\262\356?\000!T\215S\232\251?\330\324f\211\331@\310?+)\277_\206\265\355?\300\267\t:\241\'\265?\214 \203\263G+\334?\334\302\335\332Wk\314?\001\360\242\005j-\355?0\267&\024\032\206\267?\200\251zA\356\212\211?\n\261\306\347\r\005\331?\200*\263\363\344\300\274?4\036q\215&\301\347?\356\033\261\t\207G\347?\200\212\003\357\\\215r?ic6_f\036\343?\350yx\2333\351\356?6  \274=\365\324?\200\021\032\034B\344\306?\326\3575n:\324\337? \221;FB\013\223?\304\331\351\315\252\305\334?>\253\237\210{\322\352?*\026\'\331\247\020\354?\272K\210\215\237\307\355?.\333\302\006\242\351\333?\244<\3433?\222\314?\020\216\004\306\226^\315?@9\206Sz\242\252?\200=\303i\336\031\317?\374X;\216\024\243\346?\271\265\360mh\203\345?h\2229\252\006\325\301?B]\371\275\331\323\344?SVw\376L \356?\374\213\231\206\1778\340?\264\002\355jk\022\334?\360\026\340o\341\212\346?\020y\313\304\333\251\324?\2017\313\214\237^\356?\204\357\357\001\323_\343?{\302a\207w\331\357?\356.\032\263\200\270\354?\231\364\274d\220\032\347?Va\352\346\304\005\344?\360\t$\321A\233\355?\314f\322\211e\225\317?t\311\247}\332P\325?\340\264\205\361\035\360\334?\300\243D\357\353s\224?0y\373\311\244\252\333?Do\221\350ry\346?\025\254\253\366\227v\344?*\310\200b\262l\337?ok\361{d\232\356?\326\310J\327Hq\326?\264\t0\303\230\334\337?E\246\001yH\237\356?\212\276\202\266\301\024\346?h\241n6\351\303\351?\026\337\244\245\376\001\351?\010+4\340G\246\313?x\333W\3026\364\326?\340\r.D\013s\322?\0226Z\321_\213\342?\213\21303\024[\347?\217\001M\323p\272\341?\030\341\237hEd\346?j\306\253\351\'Z\324?\324VS\324\333\345\350?y\\\222h\333\242\346?\276\003\305q\021\337\351?\264\232,\374\205\024\333?\300^kR\343{\351?1l\013\374U9\341?\334Zh\276\000\320\322?\331\3278\231!\370\344?8.X\\\n\217\313?\233v\304\306\317\355\351?\336\332\344=\376A\335?\340m\337\330\300{\250?\340\370\313\301GW\323?\230\336\220\351\374s\312?\266\300,\266\367\253\332?F\223\352\227\t\\\345?\312\"GVq.\356?P\305\356B\264\206\305?\321k\322W\233U\354?\300\2676\341\'\322\211?C\no\273\033\335\342?\354+\232\353}\361\335?\277\241\240\227\233\206\347?9\205\240y\301L\347?\370\340\277!>.\330?g.t`\tO\350?\254\363\270m\356\"\305?\250\261\007\336&Q\274?tDwa\377J\316?\002S\323\007\2425\320?\300\232\231I&\252\270?lo\3723\361\010\305?\222\206\225\226\346\202\336?\343\t\234\256\375\217\340?\215\343\200\303\204\310\343?\324\250\301\342X4\301?\240\226mS\231\271\300?\360\300\350\024\"e\271?{\256\2530\322J\343?@8\316\333\370\227\262?\300\317\226 $\273\261?\312T\362\334do\325?,\342\267\367\360\262\322?Z\034\347\301\274Q\325?\335\314\341\013\257\330\341?+q\240\006\317\031\353?\364\027\337\250ZE\312?`\203\367i\272\013\354?\250\034X\372\370\316\300?jqfJ\\x\336?\244\037\323\014&\010\314?m\232\200\317w\333\355?\332\276-\036R^\322?)0\341z]\030\353?\360\252\355%\244N\354?\242\223\311\221\307R\330?\250\236-\226\326\017\336?)w\013\224?Q\345?m%H\203\362)\355? 6c9oK\275?d\035\202\225\204[\332?\214V\335\261\276\232\327?\370\235^\206\242\212\327?\370\322\220\021\000\031\272?\320\037\233A\'l\307?\276<\375Q\337\030\320?\261\336\246\025\223\243\341?\332\372\322\373\023\253\333?\306\004\245.\326R\325?\334x\252\262a\317\334?\030\031\327\3364\210\357?7\202C\231\222i\341?>\357\221!x\250\343?\254K\276^\257\017\302?\246\227\354\243\034\202\353?\365\274@O\272W\343?\254{C\246C&\334?8\246\206\242\310\217\331?\327\373\020\214f\376\346?P\370\334@\226\262\337?\302\207\177\233G\351\357?\314\320\344#\327\346\354?\352Aj\032\354\334\320?\277\002^\221\215\377\341?\274\264\255E\025\226\302?\261\230\215\365m\240\347?\010\203\020\036\312\000\343?.\227\233SB_\352?\303m\211\032?l\344?b\377g\375\222\246\342?\350 H\340\036P\337?\"7\216\277<\216\334?\014\214C\327\320\233\345?G\306 \004e\250\344?\3529]>\233\223\333?\nxZ-\224\004\332?\254T\"i\202\204\301?\367\002\341$\333\340\341?6\230\327\367\250^\342?\034@Jbro\346?l\0216S\367r\312?\020:\245q\305\'\342?\215\260\275\021\333\312\344?\235Kpb\3372\353?4\211\342B\220\225\304?\320nk\277\247\r\327?}?\337\266\330,\342?\233\332\367\237\026\253\350?\376\200\212p\302\233\340?u\347\001\326\330\370\347?@\220\275\313-\360\250?\370\017\370\271\306\345\311?\n+`\325B\211\325?`H\313\332{\031\354?\242\254\322\342\024\037\336?WE3VN \355?8$u7\214\224\342?@\377&\320 \377\231?nl;N4\\\325?\206T\340\221I\\\320?+Y\332\005%\310\340?\224\363\034\326\310m\305?[>p\254Dl\355?\254\327\263\301\371J\351?\r\206\334\312\024\360\355?%fC\305N~\352? 6\220\020Km\321?\237\270:T\376\001\347?l\'\321\027\240w\354?\242\224K\261\305o\350?\260\000\013j\360\327\305?\033G\221Y@\010\341?\302\333\"\374f7\327?\304\240\373]J\207\307?\030\245\236a\231X\317?\220\203\363&\307\304\330?\r\244\365T\314g\344?WJ`\3124!\345?\260|\351\313@\270\330?\217\2268\336C7\341?\370\245\007\035,\303\275?\255\204\236rS\242\350?\262\372\247\266\345k\347?\306C\231\227\003\004\346?\231\310\372-\2719\354?p\303\217\360\352\351\331?\010V\310\343ss\336?\000uT\365B\362\272?\027\031\224f\316\224\357?\001\356c\233XJ\355?$\325\357\333\206m\337?E\031\276\014\"j\346?\344\374\276\247y\234\343?\372#K\375\343C\331?X/$z4\361\316?Un&\225\242\215\345?[a\235j>z\347?\014\036\206l\306\026\347?8\010\347\267\351\002\273?\177\022f\361\226\\\357?\250\347Ve\322\266\320?T\267\257\337v\213\327?\013z\312\265X\277\352?\330 \206\251)\346\272?| \255\364\353\224\312?\260\312\240\007J\'\257?\352\361\033\005S\200\335?\000l\223\270\305v\253?`[\355\321\"P\333?\332\214\331\003V\234\352?\302,*\265\002R\325?\000 \23491\330\021?@\024T\022 \362\251?\344\320\357\270wp\313?\240\271\230l\354\243\254?\320i\302>m\340\246?\010\223\\\254\315\333\260?|\304\300|\021&\344? \324e\246d\300\301?\260\244\365\"\360\216\341?\210\247}s\031\211\337?n\323\303,\266\260\330?\t0\310\372\344\207\354?XM\207\n\345\326\260?\346\217,*o\333\347? Y\"\317\255\364\331?\244owP\345\001\345?~\003\004*\246r\353?\263e\211E-\233\353?d\210M\004\0324\304?\266obD\351l\347?\n\310\024\210u.\342?P^\365df}\276?B\335z\244\"\216\336?)\363i\250\024T\344?~\335\007\203\245\001\334?\314\306\332\006\306\014\346?<\253%\305Q\352\352?@\356\214\363\026x\244??\177\177:B\257\351?\210\310\352\014\272|\354?@\335\321\365@f\262?\332\n\365\371\276\322\334?\250\026\037\261a,\347?\034%\233\2118\000\324?\236B\005\205\362\351\347?\010\036wv\327\035\353?\224G\371\010Wk\354?@A\304\316\3073\245?\204\362D`\344\003\301?\200\341Z\266\341\201\307?\335\017\300\177\024\371\344?\236\022r\317\034\000\351?`\330\246q1\273\330?F\276\343|u*\331?\2124\264)\365\237\326?\033\333$\273V\032\345?S5\251\257b\306\347?\324M\351\352\005\367\315?\322\320=\021o\237\323?\314\322,\373\360\\\332?\346,d\254\264\265\322?\220\233*\256\236\300\335?JYe\2163a\331?h[\260\2158\245\304?h\343.\375-\024\332?.zM\302UB\337?0d\026vR\247\272?\360\314\346\364\241g\243?|\376l\372)M\332?\210\315\255\034_\330\333?\352zH\177\204f\333?\322)\237\274WZ\344?\010A\244*\367\313\272?\031\224Hc\323Z\356?\361\356<L\356\371\345?*\242x\304\'\234\344?\014\232t\207!\374\353?\202\021\017}\261\264\353?)\360\304c\265?\346?\216!V\307\234\021\354?\214\007\324\214\332\275\347?J\357\254\304\347\225\353?\314rw\257\272\313\325?2\362\370\201\234\326\347?\274\307p\230\365\236\353?\000\r&<\0133\276?r5\215\224\007O\353?\004\200>\255\361:\316?\014c]\3624m\356?\200\3141\333\310i\213?\376\304\246\001_\351\341?\2413q\351\225B\347?\217\214\237\364C)\356?\324\271\376\315\005\263\305?\262\273\026H\341t\354?m\240_@\036\202\340?\313\021\230\363\347r\353?+\350\231D\375S\353?c\025\206\302 \002\343?\364\243\273m\334\372\334?\322\207\347\374\377\235\346?\241\357g\305yg\357?*\376K\236\024\325\330?\354~\346\000\224\251\354?\033\0365\354\271\002\351?\333\026\365I\177K\340?\204\332 R\001\223\340?\207\254\256\366\231(\351?81V\264\310D\336?\000\026b\265E\267a?\004\213\343y\202,\310?\324\203\3565\006\001\334?\200\316\030\310\232\260\331?\310}\027\204\235\212\343?\310%\374\276\265\220\305?\326#4j\'k\325?\000\363\002Q\323\220\355?\244X\325\320.x\334?\372\324\024gM\245\353?\340\005\327c\235\202\353?\220\364\016\323\221\303\251?\020\002\367\353\356*\244?\264\3266I\262\250\357?B\002\216w\004\377\335?\250\324\272R\340\000\357?\210\235\372\341l\317\343?(Hx!\277\337\304?\326\234\005\375\210\270\337?8Q`c\334t\262?\330\374\261\236b\344\274?\230E\030&\253M\264?H\350D>fx\345?\314 \326F\036\357\350?\352\306\313x\205\013\336?3\311Q\302\224\374\345?\362\253\032i\306\341\322?\250\266\240\\\301z\357?\346\332\220\305\235-\335?\000\2154\037lBc?\3246\326\257\326\254\317?\007W\200\034[\341\357?\024\204u\030\272U\304?\224\277cP\373\323\331?\347-\375\357*\211\346?\024D6j\271\036\353?B5\016\352][\327?8\221\314\373\006\347\350?\250N\337\016\007\233\307?\314f\213\301Y\213\355?\311\266ZAz\306\353?*`\332\230\036^\333?\377\025,\222),\353?\000\252\017,\314\337\270?\"\003g\2072e\323?HK\252\353o\232\310?5?\233\351\320k\356??\307\203\361C \351?Z\354[\247\216\001\324?\000\350\372W\365\021>?\204\266\340\215\r\327\322?nR\326\312F\363\334?\314+\233\232\220\232\327?\355\235^.\017\002\347?\217\355\261v\356\211\353?#\267`\341\222@\355?\256\206\356s\210k\336?\200\002\314\301\211\361\313?S\205v\267\t\000\344?\334\316\r\276\2501\335?\000t~u\325\243\247?\304\"\247\227VC\332?_\261\302E\226Y\353?A\354\216\270\034\n\357?\253\362\230\020Bw\347?\362\034-\332YH\353?&T\304\005\345\006\332?\260\002\310\310\306\246\355?\224VTx\023\212\310?\347o\030\r\202\004\340?k\274\270\304/g\342?\3367+|\264\375\333?\300\322\036\337\330\n\355?\230M\344\2260h\262?\241O\205q\344o\340?\344,\320G\231\322\356?tX\0309wg\342?\354\223\034\346\335\202\313?\035\263\331\013\270\344\346?\265\370P\374\320\243\351?\356\007\032\020\247\211\332?6\364C\177\235\373\356?@\254\211`\377\376\216?\271:R\365H\322\357?\200\263u\322\221*\276?A\353\226\372{i\351?H\177\356\370\007\221\355?\276\0240\237\350V\321?d\315F\367\237\351\317?\014\301e\0229\365\351?po\n\337\306\304\355?\256N\223\033\254\n\333?\300\177!Y\241\312\316?\225\n\202{\333\335\350?\221\314\231\357!\340\344?P.F\2068\210\353?\252\361\272\305\025\214\354?\014\010\212<\237x\300?P\350\340\334\326\342\332?6p\210\351E\332\353?\304\242F)\240\211\344?\032v\375\03321\336?\344C\270\250{p\357?\365\201\255\177\351\336\340?\206e\202*Hf\321?\272\342\216+\026i\324?\273\341tO\n\t\344?\314\215\206P|%\333?\372O\235\253v\r\347?R\000M\267\014y\351?:\361\'\022\033\"\326?C\266\213\214\270\177\342?p#\016E\"\007\333?\303\016\301\033[\257\356?\304\244\374j\r\375\351?\351\3418y\245\346\340?\0162\273M\207\037\340?\344\375gpL\346\320?~3cH+\002\325?=\335\263\024W\001\343?\030G\234\013\373\340\317?\010h\035s)\261\342?\264n\2134\274X\302?\360\374\366\271u\265\262?|4\314\001\325\320\311?\351\274\242\3600\220\355? \370\237r)\351\263?P\315R\036\356\372\244?n\247\325\302\014\334\341?\240\002\251\275O\210\332?\240\370]H6\222\277?\016g\177MY{\331?\336\001\n5\001\234\356?8\021\211{xk\344?\263\341\350\267B\355\354?0\004\322\307$\252\311? p9G\200\022\347?\300\345G\341\037\007\312?hq\201\372\256\272\337?m\314T\'\220\231\352?\000\316\005\277Y_\273?\npR\2518\202\326?\320\267O\307\373\326\315?\223E\371\212\367 \352?\330\273\255\214\023\346\347?\3073\252V\317\354\351?\323;\313\213:\333\356?\355\366\306\377\n\224\343?\221\023dkH\025\340?\220\311S\337#\234\352?\315\217\026\266\371\332\347?\265\362\346\262\376e\342?}\266\252\357\273\306\345?P\335\025k\t\360\247?\346v7M\336\344\354?\247\220I\177\243\023\341?\020\341\363\235\325\271\307?\374>K\264e<\313?\375E\017\304\327\350\346?\340zG)\223\022\221?\250\256\332O\033\332\344?\016qn\026\275\310\320?\022f\206Y \345\352?\214Z\310\356\273\223\326?\250\314\327\014\313/\313?\320\321\306\204y\026\272?\2025)\016\211\344\345?\214\016VE\303\214\347?\310]J\234\362\231\327?\366B\247\267\362<\327?\210\315\210h\375U\335?\230%;e_\376\306?su73\374\317\343?\304\300\246\324M\360\351?\\\361L\016\272\021\350?\254=\206\034g\031\344?\314^\357\330Y\246\347?\\\037\226H\252\365\314?5\3207\245\235i\352?[>\02729\250\341?\006\326D\210|\231\324?~\340\333\310K/\347?\300&\003\217\261Z\312?/\n\305\3167\305\347?ZA\252\310\036\203\335?,\371\361\260_\270\313?\007DG\365\371J\341?\240\323\316\341Q>\225?>qu\246>^\331?\274\225\034p\203\003\341?\246[\003[\230\226\344?\215\320\306+b\320\344?@\301\215m\372\r\307?\037\232Q\374\037\373\347?\000\231\264\366\337]\333?|\005l\356H\300\354?\000\212\300\'\237\033\263?\352\310\226\335v\n\333?\316%\024\035\375\302\345?\000\014\246N\334\242\300?b>0RCY\340?\177\203\375\234Tr\347?\274\360\262T\347\372\345?*R\253\33760\354?\327D\221\327\367d\346?+\021\177\'$\"\355?@\362~\001+\222\311? t\216\336\370:\252?h\027G\"\247\275\333?P\346=n\331{\331?M\300\365\244\264\227\350?\247\033g\211\266\333\357?\\4\037g(`\341?\010\233ej\265\231\260?n\326\332D:\210\343?\3207\254\337\025\272\275?X\345F\033_T\323?\351\232\370\376{\337\354?x\255\306\337)\355\263? \347E\273\032\201\257?\033\\\314\3110\244\353?\333\332]\326\321\267\351?\316;\023\371Wq\352?\310\2142X\222\t\353?R\377\325\222:\001\356?\250D\267\302\243\023\352?\331V\005E\241\206\344?\216I\274\243W\373\335?IKo\201\331\247\356?\312;&\210H~\345?\210\227\311.\247U\343?\251G\213\246\365\375\342?\177u\035p:T\345?\274W\341\316\232\201\355?\010\330\216\252Q\376\270?3\355>8\356\336\353?k$\261\324)*\354?\016\233\026>\333W\326?A\252\237\226OH\345?\030\271\020M\007\364\301?\034\332v\207\005\257\344?>\033\376\004\262\225\337?\221L\266\215\177\270\356?\200\362Q\261\203\362\207?\256\222c\263\224\310\355?\260\202$\372\253\362\324?xKkZ3*\305?\204\370Lo\021m\330?\272\233\353\'z\204\340?\274\246+\212\217\222\340?\312\316\365\363\013\010\325?\364\252HJ)\243\343?\350$\242\033\364\367\356?tO\355\266(\'\325?\300\342\210\247\370\323\315?\322\270/N\003\016\337?\354q\357\203~K\351?ma\354\014\374 \340?| \264W\272\361\314?\030\272\317\t\300\277\303?\256h\214\356\021\022\344?6\030\375\347\234\330\342?\235\215\325\340\231G\344?\002]\214%\005K\326?\347GsA\272`\346?\0245\226rAn\352?\354\242\215\251\302@\311?\177\245\033x\321g\351?\206\364q\332\226\274\322?\231\331\270\266\373\020\347?\362\206\335\205A\354\333?\2107\252\300\3244\263?\014\365zS\354\334\357?97=\020\206\372\343?*&$\2508\273\350?\356\220&\322\247\020\336?\257h\364\177d\\\353?\360\023?\315*\312\271?\3145\324\346\357\255\303?+\222z\311\235i\341?Z\255\224\222N\365\355?Y\025\007\207\263\353\354?\000\"\247\242T5\263?\266g\001\355\360h\347?P\225\371njb\277?\300x\254\204\250\317\262?C\320\332.\227-\345?\213\242\216\241\372\220\357?\252\320g\323S\356\340?~\331;-\306:\321?\364\347\354s\211\223\354?2\227p\350\237S\332?\202\344&0\2010\341?\221\264.\342\025\337\347?\372\267wu\204`\357?\310!\275\221\304E\314?WLHEh\231\355?\204\274\325\365\0227\333? \367\374!/\236\270?+L\212\376\"\223\347? \202\243\002v\332\237?Sw\032\256`%\343?L!\213\267\027\326\337?\034\337\205\367\212\340\346?*C\346\006~\n\343?\340\276y\222A\321\315?\346\202U\261\023L\327?\224&\322\317_\363\341?\034\221\367u?\370\314?e\236\002V\351\366\357?\335V\306\023P\350\351?jf\317\200\222\221\325?y\'\"T\341\264\357?\223\260\206L\032\347\353?\367q\262\031\005\000\352?\315\027\371\273\202\377\356?p\021[\266\304\275\245?t.: \372Z\317?\223cq\365\323\232\341?f+\215A}\t\325?HD\014J\022|\331?Y`\261\226\243\262\344?\322,\225\370\300I\343?\030\310\200\261\335I\300?|\020\245g\3152\315?\'\332q)\230\235\340?e\2776r^\025\351?\254\253,P\307T\334?x\232a\033U\000\331?\300en.3\"\303?@\361:\256\204\306\264?Hi\237\034\263\031\264?&\032\201\202\277\006\344?\344\022\022\347t\220\346?\254<\202\326\203\320\336?\000\\\253E\216\025e?\270\315\037\371\211a\324?H\366\034\014Q\211\334?(\316\266\2204X\314?\200?\353g\260\372\335?Lh\311\242\272\220\334?8\016\300\356\243\326\337?)\r\276=\357T\354?\020\344M\325&\201\256?\367%\347\232\036\325\345? \322\244#\220\231\326?\340+\0001\207\334\233?$\214\177\356R\"\340?~\271\364\315v\207\355?d\203\336\264u\322\351?\334\355\310U\306\376\330?,!\220^\311\217\331?\250\202\362\251\366\217\321?\024\365\205\311\035\263\347?Tx\226\317g>\324?\274~\202\216ws\304?\236\203\323\311\250\016\322?\017\215\016\217\223/\345?l\207=\206\326\302\335?\013\232\211\036C\014\356?R\220\3228\214\006\336?\360\370t\351\361)\343??\032U:|D\341?\200\325\013|\206\312\313?n\033\013\377\337S\341?(\313\326\366\031r\344?\017\002n\350/1\353? \333a\376\337\377\224?\000G\014\360R\337\304?n\265;IT\342\341?p\257k\265\316\277\350?\321\366\350J~\231\347?1\260\013jWS\346?\300`\261\325p\270\327?\203\340\275Z\316d\346?V\267\361=#\311\337?\350\354y\310\034\227\321?%\354\027%f\224\345?8\314\305\265\346B\324?b\355\231\223\365\002\326??\242%#\216\265\344?\0029\254a\034#\323?\000\271\310\260\251V\311?$\350LS\223\213\314?&\220\324c\277\231\331?Xh\210\017,\236\264?\340\345qAR6\272?(\346]\236qa\351?\177\216@[\314n\350?\367\376\254\223P\201\357?\213%\216\201\352\016\342?\333\002?/\261\'\344?H\226\220\024\307-\316?\310Q33Z;\303?\312a\360\363\216\360\355?:$G\344q\276\356?\260I\325\374\347\371\257?)\031\325G\330\245\345?T\270N\"\037\243\330?\250\210Zwo\364\324?xW\236R\373w\270?,|\337\001\204\317\313?D\200\004\311\343=\313?:\371\257\301\221\207\356?P0\021<\351\347\244?\303\266\020\350\035\274\352?\246\277\023\352G\350\332?\200a\302Y\211A\337?\214\315B\0201\224\304?c\361\035\3773\301\352? \264\225\360y\207\312?\332\334\355N\206\036\324?\326}#\255\361\313\350?\250\031\235\222\236s\326?>!\231o\350\342\353?3\375D\013\355p\347?M\352\265(h\352\353?\000\341\311\0240\206t?l%\"\033\354J\335?\273\217\356v\367&\357?:\2651\0146>\334?\205\351\003\361\222.\341?\2556\254\010\274J\352?\260\306+\221\316\346\241?\"\315]\014\013\326\352?^\264,\204\032\031\352?\330\305w;\313\254\351?p\242\256\351\236Q\274?\320\374\023\007\0002\341?\260\316\215\352_\261\266?\000\245\032\010\266\320\255??\277n:\327\322\354?hz\316\214fb\337?l\267\303O\006\370\312?\243{K\236\266\257\342?\274\276)\361\236|\304?L\0213\215\323\361\356?@\320\355G\022\254\255?\007\330\376\253\375\260\347?\025\316\363\310\362\233\344?\006k\354\033\311\005\321?\356`\203Hv\260\325?\255\214\261\315\302I\350?\320\2441\350\365A\243?\n\'B\277\004\311\352?\322_:\\\243^\334?\247\247\020;w(\340?\236\316\266@\036\367\327?b1\316tZ\000\343?\007&\003\256W\330\347?\320\237\333;\345\232\301?\2409\230\254q\343\343?\203u\360\037En\353?\n\222\365\356\341\353\320?\350\232\256Z\304j\304?\204\331\005w\307\006\355?\300\304\235\237\317)\264?\255y\202M\367\003\347?;-U\007\001\303\341?\270\t\277\250\350\266\305?\034\226\260\244i\032\302?\332\361\342\032\264\363\355?b\360\353\327q\250\345?.\361yN\rv\334?v\306\n&\202\322\336?\247\240\262\301mN\356?\250\244/xj\246\354?\263N\340\367\205\340\346?zqD\225\376N\356?\003\t\033\017\0067\341?\204Ul\217<\222\317?L\230\276\256\323\311\302?\251\226\213\340Q\375\346?L\322 \250\274\373\315?\322e\210\355\230\271\356?!\002(\343\203p\345?\027J\373\026\tM\357?\266\342\324 \264\231\351?\355\341\367y+\025\350?\324\217\262\000l\256\302?\214\313\204.\200\261\331?\033\t\017\330!k\351?\273\322\333I\305}\342?@\2669\365\233\246\354?\004:\322\3766\177\337?\3248\346#\001\232\311?O\336\357\260\261\370\352?\023\206\357i\202?\355?6\234\371:\027\353\352?3\212\244\3162\340\346?\320s\340\004\350\350\340?l\203;\037.\241\333?\300\276\017\243TL\247?\253\347\217\3766\n\347?\013\\\\\030\227<\344?\000 \313C|\370\227?\264\362X<i\365\354?hY\007\357\370\023\305?b\031m\202[\001\346?XH\361\013/\013\265?\246\310El\367w\327?O\235\331\234#9\352?x\336\033t\030\006\336?\3209\'\0347\352\252?\354\361),kN\333?\337\004Y\352X\r\351?\001y\264,\023\235\342?8&\"\374\337\322\273?\262}o\232Y\036\357?\024\3644\342v\314\305?X\007\272\377\263\354\267?\\{\3233\006J\326?\020\224\324[\217\371\341?%\020\305$\326\201\341?@\317 k\034\311\243?P\366sw\236L\256?\306SW\277\026 \324?\036\020\235}?\020\342?q\217K\326\347\310\343?\005\230\264\226J\202\345?\342\002<W1>\322?\240\224J\016It\336?\366\253\376G\203\252\356?\314\306c\037\257q\333?\221q\027\335\307`\342?KH\235_z\014\356?\234\346{p\257\263\305?\016;Y\253\\1\337?\360Rb\251\263\235\261?2\\M\375\036\352\335?\263\250\003\330\177\266\346?\363|\337\334I,\351?\000(\343j\366M\303? \277\370\227\217\261\316?\354?\220F\302\003\350?!H\224\304\360\344\345?\000zZ\250\306\220r?\240\372\332\326\374\017\304?\211\347\343\2461\235\355?5\n\3567\320\336\347?\300\352n\t\271\006\327?s\370\025\017\226T\346?\023=\271;\371\372\341? \336\262\334\263C\276?&\345`/=\343\343?\360\354A\3000\362\303?\364T\240H\344\267\331?P-\267,?\361\310?B\206w\225\234A\342?8\014\025\0338r\276?\0040#\274\250\335\313?\265\216X\241}\177\340?i\346\275\346\010\030\352?:\324\310.9\205\322?,,\201DF\355\301?\340\261\370+\352\227\265?@\001\021\277\212\225\331?\241\3648X\241\313\341?C\037\242\245\2665\340?\327\226\225\332\351\317\354?,\3004\177]]\320?P0\335\204n\313\322?d>\312\"n\250\347?T\313\372\211\344\023\336?^]\353\344\363\347\356?I\216\270\301\345b\343?\204\253\357\033_\256\311?\306\2245]S\020\336?d\034\n\314 T\342?\220\235`\034\302\321\347?\327\270\031\237/\270\346?\032\341\353\321\341_\333?\032T\220#\317\222\333?\252\351\'u\240b\330?a\232}\t\\$\343?\356dJ\030\025\221\327?Y\262Pp \211\357?`n\225\226$u\245?\353B\002\006\007\302\347?\322\360\353\226\364p\344?@G\221\017g\352\316?\\\202\255g\031\260\314?\332\272\210T\365\005\336?\364\006\236*9\201\347?\013\270\243\202 \254\345?c\222\2171\371\233\344?:$\025V\322L\337?\234\302&\272\214c\304?\320&\210@\036\016\323?b\032\265\000\'9\324?f\320?Q!G\321?\276\261\177p\235\364\323?O\235\327f\014\241\356?\360Sf\\\337\"\330?P\355\363\331c\322\334?\r\216up\032\326\343?X\227I\024\036z\320?|o\203\265\034\267\312?\245x\271\350\272\231\353?\376z\216\020\346\310\357?\300Z\r=\204&\270?l\003\207\234K1\336?\362\037\314\324\n\014\352?\244\234\267\334\274\034\313?^\247\323\225\251]\355?\340\222\311`L\300\323?\004\276\303\323\307\010\305?\'V\027\325\334\322\356?\226\344\243\246\240\213\345?\000\320\033\030_\375\332?\356Q\231\022\210@\342?x(\373\252\325\177\276?\204\250LB\235,\324?\210(?\037\006:\264?\020/\237iL&\343?\372I0\253y\314\354?\256\360kWZ\211\330?\000e4m\255\212`?\027\203\264g\2346\356?\254\371\262\207\371N\355?\270\310\224<\275\256\324?\200\370qT\223\302\233?\020\002\330\324\372\204\350?\260\367\351\221\316\006\312?\365\237\2157\"\247\353?\200%]A`\021\242?\325\356\2567\230{\347?\264w\360~\206\375\332?\024\337\321\214,\302\347?a\253\222_#h\351?\035\254\212\316\317\370\356?\r\347`\217\257\314\341?p\224_\211\307P\270?\334}\220\331\036\301\323?x\355\316\035\255\341\355?\024n1\337P\252\310?^\220\220r\002\260\337?l.b\201(#\322?\254\335}\010(\261\303?\250\315\\\313~b\275?N\310\354\000J\274\326?\342\232\371\202\000\376\344?\360z@*Z\001\332?\"\311\274\253\234W\337?`\344\225\212\017.\314?L#\022\332o\013\332?\030\032\033\340Z\241\352?\254\226W\365\215\250\304?\220\303JzQ\360\267?\\\205\200\226\305*\340?wi\207.\350\336\342?\224\254\236g;e\340?@V\375rJU\332?\037DG\240\306^\355?DW\301\n3\034\347?\200\317[wS\001\250?d\3358i\360\270\350?k\346\330\324\027\303\355?\2425>\245c\246\352?\235\317\003\346.A\351?\365VI*n=\343?\2640\004XU\337\353?4:\211\277\0175\316?\212\000~dd\265\352?\246\t\264\234@\211\323?\014\337D2\225\243\323?\253 8\223e\260\341?\307\221C%\006\232\350?\205Y\206\300\262\246\346?\340\277\304\337\367\t\347?\370p\323g\223\352\344?\320\352\266\322\242\031\335?\032\267\223\350s\323\332?\250\270\002\006\207x\325?m\262!\224\212W\354?\202\235\022\276\321\276\354?\306\364\315\366\345G\336?\330\365\'ZN|\260?\023\\\242@NF\342?\334\266\035\326\215\322\306?\254\371\014\177\303\356\311?\305\343T\267\346\373\340?\006\363\206\2539\213\336?\340\025D\311\037\372\331?\336\026\236\324\306g\350?\200l\225\3247\321\354?\"\311\n\032\303\017\355?\317\207\221\022\277\273\347?\n\020\331\221\353\275\340?\320\367:4\203\334\336?)\r\350\346c\310\354?(VH\216&\201\320?\300\333\253\347\246X\323?\036W\251\201=\351\323?p\346\231\020\235\275\303?\310\310\3517+\025\277?h&\005\302\247\300\300?\373,\253\326\312*\354?\322W\263c\3646\327?\337*\212\021\345C\341?\377[W6D\r\353?j\020\325\305W\242\356?\004\335}m\240\303\314?\204> \311\314Z\314?\270\251\360HQ(\340?\211\021n\022O\024\344?h\036:\205^\340\352?\344\020a|\230\341\312?\2357\363Q\377C\345?\341\335\266.\275\311\351?C\262\217\243N\256\344?\272J\200\213\260\337\334?\032\017\353\226Y\251\333?\331\205\026\315\0014\353?\212\354\276\240]\342\346?\\\347Gn\254O\306?\222\361\335\014\260\304\333?\224J3\02391\316?\220\377\026z\304\037\324?\020<~\361\326\205\327?D\244f\216\004t\345?\267z\013\272\346\377\346?.\030\232\305 f\330?\227\231%S\030\312\354?\361$\037R\364\262\347?\24021\334;Q\253?\301=\307R[N\351?\256\236c\361\201\221\331?\376%\351\317\312\202\353?J(~\236\2771\336?p\276<\300\255\361\333?\006\255\3312e\335\355?.G?\201\323W\356?\200\177\202\033\345\311\267?\266B\010\017\357\005\337?!I\303\001=\360\351?\336Yv)$\253\332?z\351#\227oC\334?\3148IW\200$\331?;\\\032]\277\'\342?k\211\001\223\326\263\340?}FB$\303\352\352?q\211\317\232k\354\341?\220\375\014|x\236\261?\340\374\030\240\210\245\241?\n\3224\035<!\356?\3432\360sc\035\346?\236$\216\244K{\323?Sr\333\353\0162\352?\031\337\322G\212\207\356?\3414\275\264\340\313\344?\330\222\216\266DZ\355?\245In\244\201/\342?@\217\261\234j\363\235?B\226K\241\222\256\357?\207\325y\346\010E\344?\3301\3729C\320\264?\026\325\212\022u\234\350?\323\335\240\030\023 \340?<\350z\364,\020\321?L\265\356cm\232\347?h\306\353\213\357\240\311?\350\303\260\255\335\263\266?Fct\021\305t\326?\260\325\004\363\253\340\254?\316\027\323\2455\341\335?M:W6=\214\344?\350\311\312\020\317\264\343?\000\225ad\014\022\203?\030\234\273\263L9\302?h\241w\221\270)\272?`\336\340rn\212\227?\263\310\220\273\351\222\355?\226\277T\251\n\201\330?Pr\206\225\243\360\247?\224#\361\265\027-\301?,\274\343\333}\232\321?\350\334\220\343\017n\337?\313.\2239\324\202\352?\300\177aN\323\235\263?q$\ru\006\324\355?\360\335^EN\003\324?X\361\221\177o\213\342?\300\305V \021\374\275?\374\274E%\002^\326?)r{V\\S\353?\237%\320\206\364_\340?R.\245\025\014\241\346?\203\201RO\202\314\357?\307\276\033\310\346\346\351?#\311\256\025-\270\342?DG\270\353\265]\347?}>X\025\3725\354?\223-\014\265\227\246\353?\237e\300\311\313 